[MASK] 1
▁the 1
▁. 1
▁, 1
▁to 1
▁and 1
▁a 1
▁of 1
s 1
▁in 1
' 1
▁i 1
▁that 1
▁" 1
▁for 1
▁it 1
▁is 1
▁on 1
- 1
▁was 1
▁with 1
▁he 1
▁as 1
▁at 1
t 1
▁be 1
▁you 1
▁this 1
▁we 1
▁have 1
▁from 1
▁by 1
▁his 1
▁but 1
▁are 1
▁( 1
▁not 1
▁said 1
▁they 1
▁an 1
▁has 1
▁had 1
▁she 1
▁her 1
▁my 1
▁will 1
▁or 1
▁one 1
▁all 1
▁so 1
▁their 1
▁were 1
▁." 1
▁: 1
▁who 1
▁) 1
▁up 1
▁about 1
▁out 1
▁- 1
▁can 1
▁more 1
▁when 1
▁there 1
▁been 1
▁," 1
▁would 1
▁which 1
▁' 1
▁me 1
▁if 1
▁what 1
m 1
▁after 1
▁also 1
▁time 1
▁just 1
▁new 1
▁like 1
d 1
▁do 1
▁no 1
▁first 1
. 1
▁our 1
▁people 1
▁some 1
▁over 1
▁him 1
▁into 1
▁two 1
▁other 1
▁? 1
▁them 1
▁its 1
▁than 1
▁get 1
▁your 1
re 1
ing 1
▁now 1
▁year 1
▁could 1
▁back 1
ed 1
▁how 1
▁then 1
▁last 1
▁only 1
▁$ 1
▁because 1
▁us 1
▁while 1
▁years 1
▁before 1
▁even 1
▁well 1
a 1
▁know 1
▁where 1
▁most 1
▁don 1
▁day 1
▁go 1
▁way 1
▁make 1
▁see 1
▁; 1
▁! 1
▁being 1
▁down 1
▁any 1
▁may 1
▁going 1
▁these 1
ve 1
▁through 1
▁made 1
▁many 1
▁very 1
▁did 1
▁much 1
▁good 1
▁state 1
▁think 1
▁off 1
▁work 1
▁still 1
▁three 1
▁those 1
▁during 1
y 1
e 1
▁world 1
i 1
▁around 1
▁home 1
▁take 1
▁here 1
▁right 1
▁really 1
▁against 1
▁since 1
▁want 1
ll 1
▁... 1
▁u 1
n 1
▁got 1
er 1
▁should 1
▁long 1
▁say 1
▁such 1
▁life 1
▁game 1
th 1
▁told 1
▁both 1
▁team 1
▁little 1
▁another 1
▁part 1
▁company 1
▁didn 1
▁trump 1
▁city 1
▁need 1
▁next 1
▁man 1
▁government 1
▁president 1
▁school 1
▁between 1
ly 1
▁1 1
▁under 1
▁). 1
▁high 1
▁week 1
▁), 1
▁police 1
▁says 1
▁too 1
▁house 1
▁2 1
▁second 1
▁same 1
▁come 1
▁things 1
▁never 1
▁something 1
▁am 1
▁family 1
▁use 1
/ 1
▁own 1
▁end 1
o 1
▁few 1
▁help 1
▁every 1
▁season 1
▁found 1
▁left 1
▁each 1
▁3 1
▁best 1
▁used 1
▁again 1
▁place 1
▁million 1
▁10 1
▁group 1
▁went 1
▁four 1
c 1
▁great 1
▁night 1
in 1
▁look 1
▁including 1
▁lot 1
▁put 1
▁took 1
▁de 1
▁% 1
▁according 1
r 1
▁came 1
▁set 1
▁big 1
▁public 1
▁national 1
▁show 1
▁love 1
▁away 1
▁today 1
▁later 1
▁per 1
▁news 1
▁why 1
▁until 1
▁however 1
year 1
▁better 1
▁without 1
▁find 1
▁called 1
▁always 1
▁country 1
▁[ 1
▁days 1
▁top 1
▁4 1
▁play 1
▁head 1
▁though 1
▁5 1
▁] 1
▁percent 1
▁number 1
▁five 1
▁might 1
" 1
▁children 1
▁women 1
▁let 1
▁court 1
▁ 1
▁won 1
▁thing 1
▁different 1
▁far 1
▁times 1
▁point 1
▁business 1
▁does 1
▁states 1
▁feel 1
▁having 1
▁thought 1
▁once 1
k 1
▁united 1
▁old 1
▁report 1
▁support 1
▁". 1
▁started 1
▁?" 1
▁car 1
▁former 1
▁market 1
▁able 1
▁asked 1
▁run 1
▁white 1
es 1
▁several 1
▁water 1
▁p 1
▁e 1
▁keep 1
▁case 1
▁already 1
▁start 1
▁free 1
p 1
▁sure 1
▁open 1
▁north 1
▁give 1
▁past 1
▁side 1
▁party 1
▁early 1
▁enough 1
▁making 1
▁ever 1
▁system 1
▁south 1
▁hard 1
▁money 1
▁getting 1
▁power 1
▁change 1
▁2017 1
▁working 1
▁area 1
▁story 1
▁20 1
▁information 1
▁doing 1
▁local 1
▁american 1
▁post 1
▁call 1
▁full 1
▁small 1
▁2018 1
▁health 1
▁office 1
old 1
▁law 1
▁men 1
▁re 1
▁months 1
▁wanted 1
▁mr 1
▁least 1
▁face 1
▁yet 1
▁6 1
▁done 1
▁must 1
▁looking 1
▁together 1
▁university 1
▁name 1
g 1
▁seen 1
▁along 1
▁across 1
▁war 1
▁real 1
man 1
▁half 1
▁room 1
▁black 1
▁doesn 1
▁friday 1
▁line 1
▁month 1
to 1
▁community 1
▁games 1
▁", 1
▁media 1
▁read 1
▁following 1
▁third 1
▁service 1
▁morning 1
▁six 1
▁12 1
▁win 1
▁county 1
▁less 1
al 1
▁person 1
▁young 1
▁trying 1
▁8 1
▁using 1
▁un 1
▁live 1
▁co 1
▁& 1
▁given 1
▁s 1
▁care 1
▁hand 1
on 1
▁wasn 1
▁7 1
▁book 1
▁added 1
▁become 1
▁actually 1
▁2016 1
▁known 1
▁ago 1
▁monday 1
▁points 1
▁course 1
▁series 1
▁data 1
▁members 1
▁bit 1
▁15 1
▁general 1
▁saw 1
▁close 1
l 1
▁york 1
▁tell 1
▁d 1
▁move 1
▁important 1
▁order 1
▁tuesday 1
▁kind 1
▁c 1
▁anything 1
▁behind 1
▁-- 1
▁research 1
▁fact 1
▁thursday 1
▁deal 1
▁someone 1
▁international 1
▁often 1
▁almost 1
▁department 1
▁food 1
▁woman 1
▁coming 1
▁within 1
▁road 1
▁front 1
▁among 1
▁taking 1
▁believe 1
▁11 1
▁hit 1
▁whether 1
▁social 1
▁wednesday 1
▁major 1
▁9 1
▁everything 1
▁air 1
▁march 1
▁taken 1
▁job 1
▁future 1
ers 1
▁security 1
▁god 1
▁john 1
▁la 1
▁fire 1
▁30 1
▁due 1
▁quarter 1
▁held 1
▁others 1
▁league 1
▁center 1
▁photo 1
▁friends 1
▁try 1
b 1
▁nothing 1
▁plan 1
▁final 1
▁felt 1
en 1
▁body 1
▁death 1
▁mother 1
▁political 1
▁large 1
▁video 1
▁price 1
▁hours 1
▁sunday 1
▁share 1
▁red 1
▁saturday 1
▁west 1
▁saying 1
▁late 1
▁film 1
▁began 1
▁looked 1
▁everyone 1
▁b 1
▁students 1
▁lead 1
▁street 1
▁services 1
▁18 1
▁near 1
▁stock 1
▁players 1
▁minister 1
▁pay 1
▁lost 1
▁o 1
▁knew 1
▁shares 1
▁reported 1
▁forward 1
▁bad 1
▁outside 1
▁minutes 1
▁played 1
▁program 1
▁project 1
▁became 1
u 1
▁building 1
▁gave 1
▁history 1
▁process 1
▁short 1
▁music 1
▁stop 1
h 1
▁control 1
▁based 1
▁father 1
▁comes 1
▁recent 1
an 1
▁federal 1
▁instead 1
: 1
▁st 1
▁likely 1
▁low 1
▁possible 1
▁campaign 1
▁human 1
▁pretty 1
▁special 1
▁experience 1
▁director 1
▁weeks 1
▁son 1
▁kids 1
▁level 1
▁june 1
▁child 1
▁town 1
▁continue 1
▁further 1
▁park 1
▁released 1
▁single 1
▁event 1
com 1
▁17 1
▁t 1
▁current 1
▁probably 1
▁although 1
▁statement 1
▁couple 1
▁earlier 1
▁officials 1
▁companies 1
▁development 1
x 1
▁16 1
▁led 1
▁expected 1
f 1
▁billion 1
▁light 1
▁bill 1
▁al 1
▁idea 1
▁leave 1
▁., 1
▁press 1
▁china 1
or 1
▁finally 1
▁board 1
▁soon 1
▁return 1
▁club 1
▁maybe 1
▁decision 1
▁himself 1
▁whole 1
▁talk 1
▁meeting 1
▁hope 1
▁turned 1
▁mind 1
▁needed 1
▁available 1
▁clear 1
▁means 1
▁chief 1
▁running 1
▁april 1
▁makes 1
▁14 1
▁13 1
▁washington 1
," 1
▁rights 1
▁2015 1
▁bank 1
▁star 1
▁isn 1
▁college 1
▁myself 1
▁record 1
▁july 1
▁strong 1
▁non 1
▁problem 1
▁inside 1
▁decided 1
▁friend 1
▁heart 1
▁space 1
▁either 1
▁eyes 1
▁age 1
▁total 1
▁list 1
▁district 1
▁turn 1
▁issue 1
▁playing 1
▁rather 1
▁question 1
▁america 1
▁field 1
▁recently 1
▁announced 1
▁financial 1
▁january 1
▁tax 1
▁buy 1
▁position 1
▁church 1
▁hold 1
▁matter 1
▁quite 1
▁mean 1
▁include 1
▁despite 1
▁anyone 1
▁shot 1
▁n 1
▁living 1
▁election 1
▁act 1
▁couldn 1
▁25 1
▁energy 1
▁period 1
▁rest 1
▁m 1
▁military 1
and 1
▁received 1
▁growth 1
z 1
▁industry 1
▁role 1
▁action 1
▁average 1
▁wrote 1
▁parents 1
▁especially 1
▁moment 1
▁door 1
▁san 1
▁player 1
▁main 1
▁bring 1
the 1
▁phone 1
▁seven 1
▁policy 1
▁trade 1
▁worked 1
▁watch 1
▁else 1
up 1
▁heard 1
▁class 1
▁hospital 1
▁r 1
▁reason 1
▁happy 1
▁east 1
▁provide 1
▁tried 1
▁member 1
▁career 1
▁key 1
▁council 1
▁stay 1
▁happened 1
▁cost 1
▁summer 1
▁land 1
▁issues 1
▁nearly 1
▁remember 1
▁november 1
▁cut 1
▁girl 1
▁died 1
▁december 1
2 1
▁force 1
us 1
▁study 1
▁goal 1
▁global 1
▁daily 1
▁coach 1
▁100 1
▁attack 1
▁fun 1
▁needs 1
▁sometimes 1
▁yes 1
▁example 1
▁ap 1
▁facebook 1
▁2014 1
▁release 1
▁currently 1
▁staff 1
▁october 1
▁g 1
▁middle 1
▁september 1
▁l 1
▁true 1
▁technology 1
▁result 1
▁seems 1
▁50 1
▁online 1
▁green 1
▁economic 1
▁above 1
▁higher 1
▁words 1
▁moved 1
▁august 1
▁longer 1
▁central 1
▁dr 1
▁official 1
▁countries 1
▁visit 1
▁killed 1
▁chance 1
▁sent 1
▁form 1
▁brought 1
▁race 1
▁spent 1
▁wife 1
▁met 1
▁!" 1
▁access 1
▁hands 1
▁ready 1
▁eight 1
▁j 1
▁plans 1
▁capital 1
▁oil 1
▁pre 1
▁football 1
▁india 1
▁lives 1
▁leader 1
▁administration 1
1 1
▁ground 1
▁understand 1
▁committee 1
▁medical 1
▁baby 1
▁ask 1
▁meet 1
▁site 1
▁mark 1
▁19 1
▁published 1
▁fight 1
▁born 1
▁below 1
▁21 1
▁increase 1
▁interest 1
▁follow 1
▁similar 1
▁officer 1
▁sign 1
▁education 1
it 1
v 1
▁reports 1
▁fall 1
▁24 1
▁david 1
▁conference 1
▁worth 1
▁latest 1
▁weekend 1
▁f 1
▁shows 1
▁private 1
▁cup 1
▁february 1
ar 1
▁quickly 1
▁drive 1
▁wall 1
ta 1
▁view 1
▁involved 1
▁self 1
▁rate 1
▁email 1
▁# 1
▁vote 1
▁twitter 1
▁sense 1
able 1
▁test 1
▁performance 1
▁create 1
▁training 1
▁wrong 1
▁results 1
na 1
▁cent 1
▁investigation 1
▁tv 1
▁potential 1
▁hear 1
▁check 1
▁continued 1
▁v 1
▁husband 1
▁art 1
▁california 1
▁ahead 1
▁step 1
▁themselves 1
▁break 1
▁easy 1
▁canada 1
▁value 1
▁ball 1
▁daughter 1
▁gone 1
▁london 1
▁personal 1
▁foreign 1
▁fans 1
▁k 1
▁x 1
▁super 1
▁image 1
▁management 1
▁boy 1
▁round 1
▁situation 1
▁store 1
▁risk 1
▁union 1
▁james 1
▁talking 1
▁senior 1
▁anti 1
3 1
▁starting 1
▁guy 1
▁british 1
▁walk 1
am 1
time 1
▁included 1
▁justice 1
▁dead 1
▁picture 1
▁previous 1
▁lower 1
▁pro 1
▁blue 1
▁legal 1
▁match 1
▁feeling 1
▁questions 1
▁production 1
▁nice 1
▁pick 1
▁station 1
▁built 1
▁russia 1
▁areas 1
▁goes 1
▁thinking 1
▁simply 1
▁wouldn 1
▁executive 1
▁region 1
▁2013 1
ton 1
▁happen 1
▁offer 1
▁european 1
▁named 1
▁donald 1
▁opened 1
▁huge 1
▁posted 1
co 1
j 1
▁w 1
▁22 1
▁mom 1
▁michael 1
▁difficult 1
▁sports 1
▁entire 1
▁writing 1
▁kept 1
▁changes 1
▁additional 1
▁bar 1
▁events 1
▁el 1
▁source 1
▁word 1
▁ran 1
ness 1
▁king 1
▁evidence 1
▁sales 1
▁whose 1
▁allow 1
▁products 1
▁build 1
▁allowed 1
▁officers 1
son 1
▁please 1
▁common 1
▁rating 1
▁created 1
▁teams 1
▁en 1
▁itself 1
▁wants 1
▁loss 1
▁original 1
▁moving 1
▁certain 1
▁sea 1
▁fourth 1
▁opportunity 1
▁showed 1
▁2019 1
▁agency 1
▁related 1
▁various 1
▁pass 1
▁river 1
▁works 1
▁focus 1
▁giving 1
▁voice 1
▁.) 1
▁cause 1
▁h 1
▁40 1
▁safety 1
▁learn 1
▁relationship 1
▁2012 1
▁cannot 1
▁seemed 1
w 1
▁table 1
▁stand 1
▁leading 1
▁date 1
▁network 1
▁bed 1
▁23 1
▁movie 1
▁investment 1
▁looks 1
based 1
▁wait 1
▁groups 1
▁paul 1
▁prime 1
▁attention 1
▁nation 1
▁impact 1
▁band 1
te 1
▁response 1
▁helped 1
le 1
▁obama 1
▁immediately 1
la 1
▁upon 1
▁sun 1
▁los 1
▁uk 1
▁gas 1
▁present 1
▁reading 1
▁usually 1
▁title 1
▁model 1
▁ended 1
▁amount 1
▁add 1
▁feet 1
▁problems 1
is 1
▁version 1
▁note 1
▁takes 1
▁workers 1
▁alone 1
▁stage 1
▁manager 1
▁oh 1
▁via 1
▁deep 1
▁republican 1
▁type 1
▁judge 1
▁target 1
▁hour 1
▁brother 1
ra 1
▁student 1
▁sound 1
▁leaders 1
▁range 1
▁followed 1
▁society 1
▁reached 1
▁hair 1
▁towards 1
▁throughout 1
▁website 1
▁perhaps 1
▁brown 1
▁gold 1
▁blood 1
▁property 1
▁christmas 1
▁floor 1
▁defense 1
▁finished 1
▁fell 1
▁terms 1
▁passed 1
▁paid 1
▁design 1
▁congress 1
▁popular 1
▁growing 1
▁stuff 1
▁trip 1
▁girls 1
▁fine 1
▁russian 1
▁expect 1
▁stories 1
▁song 1
▁nine 1
▁written 1
▁article 1
▁hall 1
▁hot 1
ia 1
▁island 1
▁figure 1
▁sold 1
ic 1
▁families 1
▁dark 1
▁associated 1
▁seem 1
▁biggest 1
▁fast 1
el 1
▁changed 1
▁inc 1
▁thank 1
▁address 1
ie 1
▁receive 1
▁complete 1
▁dog 1
▁raised 1
▁economy 1
▁ten 1
▁pain 1
▁commission 1
▁significant 1
▁scene 1
▁track 1
▁26 1
▁authorities 1
▁addition 1
▁centre 1
▁drug 1
▁interview 1
▁appeared 1
▁senate 1
▁cases 1
ley 1
▁army 1
▁firm 1
▁ways 1
▁2011 1
▁comment 1
day 1
▁natural 1
▁eventually 1
▁leaving 1
▁safe 1
▁beginning 1
▁books 1
▁completely 1
▁opening 1
4 1
▁sat 1
▁success 1
▁england 1
▁remain 1
▁27 1
▁gun 1
▁y 1
▁28 1
▁page 1
▁straight 1
▁account 1
▁population 1
▁base 1
▁se 1
▁chinese 1
▁texas 1
▁europe 1
▁considered 1
▁association 1
▁reach 1
▁closed 1
▁term 1
▁toward 1
▁shooting 1
▁haven 1
▁serious 1
▁french 1
▁2010 1
▁/ 1
▁democratic 1
▁review 1
▁practice 1
▁science 1
▁effort 1
ist 1
▁write 1
▁beyond 1
▁provided 1
▁character 1
▁attorney 1
▁australia 1
▁trust 1
▁forces 1
▁credit 1
▁increased 1
▁pressure 1
▁customers 1
▁border 1
▁served 1
▁sexual 1
▁secretary 1
▁seeing 1
▁perfect 1
▁schools 1
▁overall 1
▁eye 1
da 1
▁answer 1
▁content 1
▁sleep 1
▁returned 1
▁western 1
de 1
▁rock 1
▁details 1
▁walked 1
▁cold 1
▁stopped 1
▁scored 1
▁app 1
▁simple 1
▁incident 1
▁described 1
ne 1
▁compared 1
▁guys 1
▁miles 1
▁ability 1
▁beautiful 1
▁evening 1
▁remains 1
▁effect 1
▁letter 1
▁organization 1
▁dad 1
▁sort 1
▁signed 1
▁victory 1
▁battle 1
▁mid 1
▁message 1
▁yesterday 1
▁paper 1
▁thanks 1
▁contact 1
▁miss 1
ch 1
▁sex 1
▁includes 1
▁sister 1
▁budget 1
▁positive 1
▁exactly 1
▁cover 1
▁album 1
▁residents 1
▁efforts 1
▁google 1
▁ice 1
▁vehicle 1
▁afternoon 1
▁gets 1
▁rules 1
▁product 1
▁save 1
▁reuters 1
▁driving 1
▁weather 1
▁cash 1
ma 1
▁annual 1
▁size 1
▁travel 1
▁george 1
▁quality 1
▁arrested 1
▁waiting 1
▁multiple 1
▁investors 1
he 1
▁revenue 1
▁rose 1
▁lake 1
▁internet 1
▁loved 1
▁english 1
▁spend 1
▁movement 1
ling 1
▁box 1
▁sell 1
▁agreement 1
ian 1
▁cross 1
▁previously 1
▁certainly 1
▁eu 1
▁extra 1
do 1
▁charges 1
▁earth 1
▁smith 1
ro 1
▁material 1
▁regular 1
▁charge 1
▁particularly 1
▁apple 1
▁jobs 1
▁beat 1
▁spot 1
▁challenge 1
▁watching 1
▁largest 1
▁treatment 1
▁radio 1
▁individual 1
▁blog 1
▁cancer 1
▁pulled 1
no 1
▁fair 1
▁goals 1
▁29 1
▁holding 1
▁double 1
▁korea 1
▁card 1
▁whatever 1
▁florida 1
▁piece 1
▁failed 1
▁tour 1
▁award 1
▁runs 1
▁sitting 1
▁sit 1
▁costs 1
▁majority 1
▁@ 1
▁search 1
as 1
▁division 1
▁crime 1
▁grand 1
▁fund 1
▁net 1
▁located 1
▁choice 1
▁0 1
▁particular 1
▁lack 1
▁begin 1
▁wide 1
▁consider 1
▁users 1
▁code 1
▁winning 1
▁required 1
▁joined 1
▁violence 1
▁century 1
▁limited 1
▁poor 1
▁fear 1
▁contract 1
▁indian 1
▁speak 1
▁bay 1
▁features 1
ry 1
▁france 1
▁arrived 1
▁forced 1
ism 1
▁driver 1
▁approach 1
▁31 1
▁angeles 1
▁numbers 1
▁eat 1
▁comments 1
▁file 1
▁conditions 1
▁modern 1
▁* 1
▁prices 1
▁mike 1
▁issued 1
▁ex 1
▁calls 1
▁southern 1
▁adding 1
▁hill 1
▁aren 1
▁language 1
▁con 1
▁favorite 1
▁german 1
▁clinton 1
ity 1
▁60 1
▁shared 1
▁systems 1
▁caught 1
▁learned 1
▁accused 1
▁normal 1
_ 1
nd 1
▁culture 1
& 1
▁hearing 1
▁spending 1
▁civil 1
▁construction 1
▁beach 1
▁camp 1
▁send 1
▁northern 1
▁peace 1
▁claims 1
▁hotel 1
▁winter 1
▁images 1
▁calling 1
▁village 1
▁parts 1
▁enjoy 1
▁agreed 1
▁thousands 1
▁levels 1
▁speaking 1
▁offered 1
▁married 1
▁doctor 1
▁quick 1
▁criminal 1
▁onto 1
▁charged 1
▁television 1
▁boys 1
▁guess 1
▁mostly 1
▁spoke 1
▁trial 1
▁competition 1
▁spring 1
▁employees 1
▁nature 1
▁walking 1
▁arm 1
▁interesting 1
▁clean 1
▁le 1
▁bought 1
▁brand 1
▁herself 1
▁weight 1
▁ka 1
▁chicago 1
▁2008 1
▁demand 1
▁meant 1
rs 1
▁caused 1
▁professional 1
os 1
▁environment 1
▁reality 1
▁ensure 1
▁digital 1
▁missing 1
▁2009 1
▁income 1
▁block 1
▁independent 1
▁prison 1
▁join 1
of 1
land 1
▁standard 1
▁projects 1
▁speed 1
▁asking 1
▁protect 1
▁bus 1
▁revealed 1
▁dinner 1
▁standing 1
▁governor 1
▁van 1
▁older 1
▁computer 1
▁damage 1
▁grow 1
▁female 1
led 1
▁truth 1
▁operations 1
▁designed 1
▁championship 1
▁+ 1
▁host 1
▁israel 1
▁plus 1
▁traffic 1
▁chris 1
▁rise 1
▁yourself 1
▁robert 1
▁jan 1
▁climate 1
▁planning 1
▁snow 1
▁copyright 1
▁cool 1
▁successful 1
▁heavy 1
▁patients 1
▁planned 1
▁coast 1
▁resources 1
▁unit 1
▁avoid 1
▁window 1
▁amazing 1
▁records 1
▁exchange 1
▁democrats 1
▁places 1
▁subject 1
▁foundation 1
at 1
▁learning 1
▁analysts 1
▁physical 1
be 1
me 1
▁injury 1
▁directly 1
▁confirmed 1
▁telling 1
▁section 1
ca 1
▁africa 1
▁seat 1
▁noted 1
▁claim 1
▁claimed 1
▁putting 1
▁germany 1
▁q 1
▁definitely 1
▁businesses 1
▁sale 1
▁americans 1
▁stood 1
▁ms 1
▁cars 1
▁japan 1
term 1
ter 1
▁prior 1
▁brain 1
▁canadian 1
▁attempt 1
▁johnson 1
▁lived 1
▁funds 1
▁train 1
▁ok 1
▁ban 1
▁yards 1
▁minute 1
▁hurt 1
▁fully 1
▁concerns 1
▁developed 1
▁funding 1
▁specific 1
▁wish 1
▁fit 1
▁(@ 1
▁managed 1
▁tree 1
▁cast 1
▁pair 1
▁mass 1
▁dropped 1
▁fan 1
▁drop 1
rd 1
▁rain 1
▁basis 1
▁intelligence 1
▁finish 1
▁african 1
▁excited 1
▁push 1
▁camera 1
▁mission 1
▁professor 1
▁guard 1
il 1
▁clearly 1
▁dream 1
ka 1
▁speech 1
by 1
▁debt 1
▁difference 1
▁die 1
▁bottom 1
less 1
▁score 1
▁believed 1
men 1
▁arms 1
▁kill 1
▁rates 1
▁vice 1
▁da 1
▁të 1
▁placed 1
▁fighting 1
▁pictures 1
▁serve 1
▁continues 1
▁commercial 1
▁appear 1
▁direct 1
▁que 1
▁style 1
▁rule 1
ri 1
▁sam 1
▁improve 1
ha 1
▁lose 1
▁royal 1
▁jones 1
pa 1
ish 1
▁thomas 1
▁feature 1
▁highest 1
▁scott 1
▁primary 1
▁nuclear 1
▁wind 1
▁anyway 1
▁fox 1
▁presidential 1
▁author 1
▁murder 1
▁emergency 1
▁activities 1
▁chairman 1
▁knows 1
▁crisis 1
▁tournament 1
▁reasons 1
se 1
ja 1
▁ride 1
▁picked 1
▁markets 1
▁mexico 1
▁bridge 1
▁traditional 1
▁valley 1
▁mayor 1
▁greater 1
▁leadership 1
▁insurance 1
▁opposition 1
▁explained 1
▁freedom 1
▁jack 1
▁decades 1
▁necessary 1
▁earnings 1
▁martin 1
▁activity 1
▁active 1
▁cities 1
▁launched 1
▁conversation 1
▁parties 1
▁threat 1
▁sector 1
off 1
▁kid 1
▁platform 1
▁powerful 1
5 1
▁analysis 1
▁britain 1
▁keeping 1
line 1
▁produced 1
▁showing 1
▁= 1
▁gives 1
▁path 1
▁appears 1
▁ceo 1
▁option 1
▁candidate 1
▁nor 1
▁lines 1
ni 1
▁regional 1
▁festival 1
▁voters 1
▁becoming 1
▁photos 1
▁victims 1
▁finding 1
▁flight 1
▁attacks 1
ga 1
go 1
▁supposed 1
▁mobile 1
▁helping 1
▁christian 1
▁crowd 1
▁nfl 1
q 1
▁raise 1
▁easily 1
▁direction 1
▁plant 1
▁partner 1
▁offers 1
▁airport 1
▁lee 1
▁square 1
▁mine 1
▁wearing 1
▁launch 1
▁studies 1
▁di 1
▁corner 1
▁okay 1
▁iran 1
▁abuse 1
▁screen 1
▁worse 1
▁programs 1
▁owner 1
▁lord 1
▁thus 1
▁color 1
pm 1
▁victim 1
▁70 1
▁housing 1
▁foot 1
▁storm 1
▁highly 1
▁enter 1
▁institute 1
▁missed 1
▁grew 1
▁disease 1
▁male 1
▁z 1
▁location 1
▁happens 1
▁republicans 1
▁meanwhile 1
▁ministry 1
▁tomorrow 1
▁options 1
▁shown 1
▁sky 1
▁80 1
ge 1
▁broke 1
ation 1
▁politics 1
▁condition 1
▁shop 1
▁peter 1
ba 1
▁benefit 1
▁communities 1
▁sub 1
▁lady 1
▁kim 1
▁watched 1
▁twice 1
▁secret 1
▁sources 1
▁carry 1
▁status 1
▁draft 1
▁progress 1
▁items 1
▁2007 1
▁tonight 1
▁none 1
▁na 1
ke 1
▁skin 1
▁interested 1
▁mouth 1
▁birth 1
▁seeking 1
▁tough 1
▁mar 1
▁click 1
ner 1
▁touch 1
▁unique 1
▁sweet 1
▁losing 1
out 1
▁whom 1
▁slow 1
▁established 1
▁knowledge 1
▁software 1
ad 1
▁ben 1
▁provides 1
▁proposed 1
▁hundreds 1
▁heat 1
▁respect 1
▁bag 1
▁ratio 1
▁choose 1
▁mentioned 1
▁except 1
▁laws 1
▁protection 1
▁request 1
▁fresh 1
▁episode 1
▁nations 1
▁critical 1
▁larger 1
▁pull 1
▁actions 1
▁obviously 1
▁catch 1
▁elections 1
▁wild 1
▁responsible 1
▁benefits 1
▁joe 1
▁authority 1
▁route 1
ized 1
▁stadium 1
▁individuals 1
▁fellow 1
▁completed 1
▁filed 1
▁truly 1
▁species 1
▁ryan 1
▁operation 1
▁marriage 1
ies 1
▁talks 1
▁closer 1
▁complex 1
▁worst 1
▁cap 1
▁ship 1
▁talked 1
▁amazon 1
▁mo 1
▁australian 1
▁alleged 1
ur 1
▁port 1
▁supreme 1
▁90 1
▁fish 1
▁stated 1
▁remained 1
per 1
▁notice 1
▁apparently 1
▁concerned 1
▁device 1
field 1
▁coffee 1
▁williams 1
ment 1
▁strategy 1
▁names 1
▁spread 1
▁conservative 1
▁'. 1
▁broken 1
▁restaurant 1
▁characters 1
id 1
▁dollars 1
▁supply 1
▁covered 1
▁separate 1
▁truck 1
▁500 1
lo 1
▁parliament 1
▁captain 1
▁edit 1
▁smart 1
▁advantage 1
▁therefore 1
▁citizens 1
▁religious 1
lin 1
▁stars 1
▁operating 1
▁35 1
ko 1
▁scheduled 1
▁mental 1
one 1
▁discovered 1
▁mc 1
▁eastern 1
▁spokesman 1
▁injured 1
▁weapons 1
▁hate 1
▁massive 1
▁fifth 1
▁carried 1
▁core 1
▁sa 1
▁tech 1
▁creating 1
▁homes 1
▁youth 1
▁edge 1
▁teacher 1
▁kitchen 1
▁2006 1
▁healthy 1
▁imagine 1
ting 1
ine 1
▁suggested 1
▁prevent 1
▁reporting 1
▁vehicles 1
▁link 1
▁steps 1
▁stone 1
▁extremely 1
▁mary 1
▁labor 1
▁carolina 1
▁birthday 1
▁originally 1
▁text 1
ir 1
▁wonderful 1
▁surprise 1
▁influence 1
▁machine 1
▁killing 1
et 1
▁collection 1
▁dollar 1
▁| 1
▁dec 1
▁era 1
ce 1
▁starts 1
▁doubt 1
▁syria 1
▁focused 1
ty 1
▁faith 1
▁matt 1
▁animal 1
▁aware 1
▁bowl 1
▁et 1
▁strength 1
▁injuries 1
▁chair 1
▁wonder 1
▁wood 1
▁reduce 1
li 1
8 1
▁assault 1
▁meaning 1
▁update 1
▁william 1
▁sorry 1
▁plays 1
▁slightly 1
▁hoping 1
▁warm 1
▁web 1
▁paris 1
ul 1
▁pakistan 1
▁display 1
▁guilty 1
▁.... 1
▁cat 1
di 1
▁hasn 1
▁policies 1
▁generally 1
▁glass 1
▁headed 1
▁realized 1
▁jesus 1
den 1
▁opportunities 1
▁mountain 1
▁animals 1
▁ideas 1
▁feels 1
▁enforcement 1
▁museum 1
▁presence 1
▁audience 1
▁etc 1
▁recorded 1
▁debate 1
▁drugs 1
▁easier 1
, 1
▁leg 1
▁domestic 1
ak 1
▁identified 1
▁cell 1
▁memory 1
▁sad 1
▁dan 1
▁hell 1
▁committed 1
▁steve 1
▁hadn 1
▁journey 1
▁rich 1
▁crazy 1
▁concern 1
▁toronto 1
▁banks 1
▁200 1
▁session 1
▁initial 1
▁pop 1
▁yeah 1
▁drink 1
▁suspect 1
▁pm 1
▁boston 1
▁equipment 1
▁virginia 1
▁em 1
▁busy 1
va 1
▁broadcast 1
▁farm 1
ted 1
▁winner 1
▁effects 1
▁trouble 1
▁dance 1
▁filled 1
▁approximately 1
▁ko 1
▁counter 1
▁entered 1
▁dangerous 1
▁owned 1
▁listen 1
▁develop 1
▁immigration 1
▁du 1
▁providing 1
▁introduced 1
▁setting 1
▁library 1
▁illegal 1
▁degree 1
▁understanding 1
▁master 1
ti 1
▁decide 1
▁richard 1
▁happening 1
▁trading 1
▁balance 1
▁absolutely 1
▁allows 1
▁su 1
▁smaller 1
▁facing 1
▁tells 1
▁actual 1
▁windows 1
▁wear 1
ci 1
▁ordered 1
▁elected 1
▁offering 1
▁produce 1
▁researchers 1
ler 1
▁removed 1
▁channel 1
mo 1
▁basic 1
▁draw 1
▁proud 1
▁assistant 1
▁sport 1
▁agree 1
▁prince 1
▁decade 1
▁writer 1
▁ohio 1
▁skills 1
back 1
▁holiday 1
▁opinion 1
▁silver 1
▁negative 1
▁ii 1
▁lots 1
▁pa 1
▁welcome 1
▁application 1
▁par 1
▁user 1
▁coverage 1
ey 1
6 1
ville 1
we 1
7 1
▁suddenly 1
▁explain 1
▁turning 1
▁allowing 1
▁purchase 1
▁debut 1
▁bringing 1
00 1
▁devices 1
▁effective 1
▁weren 1
▁deputy 1
▁wake 1
▁measure 1
▁smile 1
▁documents 1
bo 1
▁unless 1
▁allegations 1
▁measures 1
▁%. 1
▁zone 1
▁native 1
▁ma 1
▁artist 1
▁noticed 1
▁prepared 1
▁indeed 1
▁remaining 1
ier 1
▁suffered 1
▁province 1
é 1
age 1
▁gain 1
▁crash 1
▁seconds 1
▁songs 1
▁dogs 1
▁legislation 1
▁appearance 1
▁multi 1
▁generation 1
▁bigger 1
▁champion 1
▁(" 1
so 1
▁willing 1
▁connection 1
▁knowing 1
▁basketball 1
way 1
▁solution 1
▁ring 1
▁eating 1
▁sick 1
▁existing 1
▁environmental 1
▁require 1
▁count 1
▁facility 1
▁seriously 1
▁fired 1
fi 1
▁plenty 1
▁lunch 1
▁premier 1
▁notes 1
wa 1
▁journal 1
▁shut 1
▁joint 1
▁slowly 1
▁jackson 1
▁earned 1
▁jail 1
▁del 1
▁sounds 1
▁industrial 1
▁throw 1
▁spirit 1
▁purpose 1
▁japanese 1
▁partners 1
▁flat 1
▁survey 1
▁reserved 1
▁crew 1
▁golden 1
▁pushed 1
▁surface 1
▁younger 1
ham 1
▁ones 1
▁labour 1
▁bush 1
▁turns 1
▁candidates 1
▁otherwise 1
▁agent 1
▁actor 1
▁worry 1
▁magazine 1
▁owners 1
▁wedding 1
▁selling 1
▁approved 1
ion 1
▁sen 1
▁pool 1
▁andrew 1
▁sheriff 1
▁2000 1
▁accept 1
▁figures 1
▁nearby 1
▁possibly 1
▁lawyer 1
▁infrastructure 1
▁apartment 1
▁structure 1
▁lay 1
▁forget 1
▁garden 1
▁saudi 1
▁struck 1
▁affected 1
▁strike 1
▁buying 1
con 1
▁considering 1
▁jim 1
▁estate 1
um 1
▁presented 1
▁capacity 1
▁forest 1
▁changing 1
▁michigan 1
▁inter 1
▁solid 1
▁sides 1
▁variety 1
▁45 1
▁responded 1
▁fuel 1
▁ultimately 1
▁distance 1
▁arrest 1
▁occurred 1
▁discuss 1
▁defensive 1
▁rising 1
▁trees 1
▁decisions 1
▁apart 1
▁ed 1
▁ha 1
▁task 1
▁bob 1
un 1
▁32 1
▁realize 1
▁clothes 1
▁initially 1
▁surprised 1
▁assembly 1
▁2005 1
▁baseball 1
well 1
▁increasing 1
▁awards 1
▁neither 1
▁korean 1
▁paying 1
▁regarding 1
▁cards 1
▁supported 1
▁corporate 1
▁function 1
▁respond 1
▁confidence 1
▁famous 1
▁teachers 1
▁signs 1
▁experts 1
▁warning 1
▁offensive 1
▁gift 1
▁fill 1
▁everybody 1
▁challenges 1
▁fbi 1
▁gay 1
au 1
▁surgery 1
ten 1
▁rs 1
▁hopes 1
▁finance 1
▁giant 1
▁turkey 1
▁ruling 1
▁queen 1
ah 1
▁fashion 1
▁vision 1
▁breaking 1
▁pointed 1
▁mad 1
▁customer 1
▁index 1
▁responsibility 1
▁enjoyed 1
▁totally 1
▁behavior 1
▁thoughts 1
▁determined 1
▁ireland 1
▁handle 1
▁moments 1
▁familiar 1
▁francisco 1
▁failure 1
▁expressed 1
▁alex 1
▁consumer 1
▁stores 1
▁denied 1
▁attended 1
▁jersey 1
▁attend 1
▁jr 1
▁serving 1
▁studio 1
▁pieces 1
▁command 1
▁seek 1
▁supporters 1
▁believes 1
▁campus 1
▁tim 1
▁unfortunately 1
▁highway 1
▁conflict 1
▁reporters 1
▁aircraft 1
▁refused 1
▁advice 1
▁moon 1
ya 1
est 1
▁fly 1
▁passing 1
▁largely 1
je 1
▁express 1
▁drove 1
▁charles 1
▁junior 1
▁estimated 1
▁lo 1
▁boat 1
▁funny 1
▁kevin 1
▁featured 1
▁parking 1
▁aid 1
▁unable 1
▁asia 1
▁reform 1
▁streets 1
▁quiet 1
▁faces 1
▁shots 1
▁row 1
pe 1
▁rare 1
▁las 1
▁agencies 1
▁reportedly 1
▁ca 1
▁mi 1
▁defence 1
▁bond 1
ana 1
ford 1
▁uses 1
▁acting 1
▁entertainment 1
▁relations 1
▁', 1
side 1
▁declined 1
io 1
▁accounts 1
star 1
▁schedule 1
▁pace 1
▁units 1
▁arts 1
▁shopping 1
▁grant 1
▁faced 1
▁experienced 1
▁leaves 1
▁combined 1
▁rep 1
▁shape 1
▁plane 1
▁armed 1
▁academy 1
▁shortly 1
▁views 1
wood 1
▁newspaper 1
ac 1
▁remove 1
▁roll 1
▁horse 1
▁scale 1
▁admitted 1
▁engine 1
▁split 1
▁ongoing 1
▁performed 1
▁stayed 1
▁honor 1
▁os 1
▁determine 1
▁doctors 1
▁electric 1
▁appeal 1
▁testing 1
point 1
▁legs 1
▁avenue 1
▁worried 1
▁auto 1
▁dry 1
▁tea 1
▁comfortable 1
▁dress 1
▁numerous 1
▁falling 1
▁mention 1
▁standards 1
▁mac 1
▁2004 1
▁background 1
▁($ 1
▁houston 1
▁conduct 1
▁bear 1
▁allegedly 1
▁wine 1
▁developing 1
▁adult 1
▁metal 1
▁tight 1
▁affairs 1
▁treated 1
▁ocean 1
sh 1
▁ya 1
▁patient 1
▁chain 1
▁beer 1
▁directed 1
ally 1
▁dis 1
like 1
▁drivers 1
▁deliver 1
▁becomes 1
▁taxes 1
▁suit 1
▁proposal 1
▁alongside 1
▁panel 1
ina 1
▁minor 1
▁soldiers 1
▁adam 1
▁magic 1
9 1
▁ho 1
▁italian 1
▁tired 1
▁transfer 1
▁types 1
▁instagram 1
▁discussion 1
▁delivered 1
▁seasons 1
▁shift 1
▁assets 1
▁scoring 1
▁marijuana 1
▁shoulder 1
mi 1
▁mix 1
▁expensive 1
ard 1
▁creative 1
▁kingdom 1
▁gotten 1
▁organizations 1
▁tiny 1
▁caption 1
▁map 1
▁exercise 1
▁buildings 1
▁sites 1
▁alive 1
▁islamic 1
▁listed 1
▁internal 1
▁secure 1
▁trail 1
▁classic 1
▁advanced 1
▁liberal 1
▁marketing 1
▁davis 1
▁fix 1
▁santa 1
▁editor 1
▁perform 1
▁strange 1
▁millions 1
▁daniel 1
ant 1
▁muslim 1
( 1
▁cloud 1
for 1
▁receiving 1
▁nov 1
▁fed 1
▁sir 1
▁jeff 1
▁typically 1
▁replace 1
▁jump 1
▁usual 1
▁arizona 1
▁limit 1
game 1
▁te 1
▁warned 1
▁basically 1
▁formed 1
▁poll 1
▁novel 1
▁anymore 1
-1 1
▁entirely 1
▁drew 1
▁technical 1
▁bike 1
ate 1
▁bid 1
▁protest 1
▁values 1
▁gender 1
▁somewhere 1
▁boss 1
▁retail 1
▁steel 1
▁films 1
▁replaced 1
za 1
der 1
▁intended 1
▁reduced 1
▁declared 1
▁extended 1
▁voted 1
▁cultural 1
▁breath 1
▁talent 1
▁harry 1
▁accident 1
▁nick 1
▁republic 1
▁grown 1
▁flow 1
▁identity 1
ek 1
▁usa 1
▁classes 1
▁positions 1
▁tools 1
▁concept 1
▁tickets 1
▁votes 1
▁scientists 1
▁joy 1
▁upper 1
▁feb 1
▁rescue 1
ization 1
▁nobody 1
▁frank 1
▁singer 1
▁consumers 1
▁taylor 1
▁neighborhood 1
▁fat 1
▁specifically 1
▁plastic 1
▁soft 1
▁squad 1
▁alternative 1
run 1
▁facilities 1
▁bodies 1
▁equal 1
▁wave 1
▁relatively 1
▁hits 1
▁theory 1
▁tied 1
▁promise 1
▁urban 1
▁neck 1
▁pan 1
▁liked 1
▁empty 1
▁1990 1
▁conducted 1
▁jo 1
▁soul 1
▁founded 1
▁announcement 1
ho 1
▁carrying 1
▁relief 1
▁prove 1
▁iraq 1
▁glad 1
▁vs 1
▁greatest 1
▁historic 1
▁stake 1
▁transport 1
▁senator 1
▁italy 1
▁oct 1
▁maintain 1
▁33 1
▁sharing 1
▁plants 1
▁brothers 1
▁bright 1
▁entry 1
▁stuck 1
20 1
▁impossible 1
▁downtown 1
▁") 1
▁grade 1
▁kelly 1
▁false 1
she 1
▁aside 1
▁miami 1
▁lawsuit 1
▁factors 1
▁supporting 1
▁brian 1
ut 1
▁kick 1
ji 1
▁stands 1
▁twenty 1
▁drama 1
▁planet 1
▁lu 1
▁quarterback 1
▁connected 1
▁sand 1
▁hopefully 1
▁afraid 1
▁louis 1
▁cook 1
▁accepted 1
▁flying 1
▁ourselves 1
▁jewish 1
▁heading 1
▁factor 1
▁seats 1
▁possibility 1
▁returning 1
▁obvious 1
▁struggle 1
▁matches 1
mer 1
▁tend 1
▁emotional 1
▁suggest 1
▁improved 1
▁models 1
▁orange 1
▁tests 1
▁troops 1
▁escape 1
▁spanish 1
▁method 1
▁apply 1
▁si 1
▁requires 1
▁owns 1
▁stick 1
▁expansion 1
▁traded 1
▁shouldn 1
▁solar 1
▁para 1
▁summit 1
▁ending 1
▁solutions 1
▁faster 1
▁artists 1
▁movies 1
▁sought 1
▁israeli 1
▁champions 1
▁approval 1
▁36 1
▁advance 1
▁defeat 1
▁yellow 1
▁somehow 1
▁adults 1
▁theatre 1
▁wa 1
▁nba 1
▁brexit 1
▁ratings 1
▁profit 1
▁beauty 1
▁guide 1
▁upcoming 1
▁retired 1
▁increasingly 1
▁colorado 1
ap 1
▁ne 1
▁helps 1
ize 1
▁visited 1
▁eric 1
▁achieve 1
▁christ 1
▁rural 1
▁mis 1
▁2020 1
▁ta 1
▁zero 1
▁catholic 1
▁desire 1
▁hole 1
▁manchester 1
▁shall 1
▁potentially 1
▁materials 1
▁teaching 1
▁interests 1
▁des 1
▁2003 1
▁waste 1
▁appointed 1
▁identify 1
... 1
▁lawmakers 1
▁meat 1
uk 1
▁volume 1
▁threw 1
▁treat 1
▁sharp 1
ron 1
▁expand 1
▁corporation 1
gen 1
▁lucky 1
ng 1
▁transition 1
▁communications 1
▁unlike 1
▁34 1
▁applications 1
▁georgia 1
▁ad 1
▁angry 1
▁joseph 1
▁historical 1
▁pet 1
▁correct 1
▁statements 1
▁parent 1
ó 1
ster 1
▁stress 1
ë 1
▁instance 1
sen 1
▁max 1
▁rally 1
▁loan 1
izing 1
▁bbc 1
▁bell 1
▁expectations 1
▁pot 1
▁feed 1
▁transportation 1
▁download 1
@ 1
▁tears 1
▁memorial 1
▁forever 1
▁cuts 1
▁length 1
▁ku 1
▁causing 1
▁promised 1
▁suffering 1
▁commitment 1
▁sentence 1
vi 1
▁valued 1
▁miller 1
▁ceremony 1
▁investigators 1
▁voting 1
▁1980 1
▁irish 1
▁videos 1
▁sixth 1
▁300 1
▁sugar 1
▁navy 1
▁iron 1
▁coalition 1
▁tool 1
▁jordan 1
▁visitors 1
▁> 1
▁chest 1
▁jason 1
▁chose 1
▁syrian 1
▁contributed 1
ber 1
▁pounds 1
▁broad 1
▁laid 1
▁medicine 1
ov 1
▁motion 1
▁prize 1
▁lights 1
▁fake 1
don 1
▁anywhere 1
▁percentage 1
▁alcohol 1
ger 1
▁analyst 1
▁smoke 1
▁lie 1
que 1
▁phase 1
▁taught 1
▁pack 1
▁trans 1
ki 1
▁creation 1
▁brief 1
fa 1
▁pushing 1
over 1
car 1
hi 1
▁stepped 1
▁exciting 1
▁henry 1
▁doors 1
▁ticket 1
▁pen 1
▁farmers 1
▁boost 1
▁reserve 1
▁mrs 1
▁appropriate 1
▁2001 1
▁wilson 1
▁begins 1
▁chapter 1
▁attempted 1
▁cells 1
▁recovery 1
▁manage 1
▁detroit 1
▁hockey 1
▁purchased 1
▁matters 1
▁awesome 1
min 1
▁immediate 1
che 1
▁ke 1
▁sept 1
ex 1
▁surrounding 1
▁49 1
▁musical 1
▁argument 1
end 1
▁privacy 1
▁bi 1
▁seattle 1
▁vegas 1
▁golf 1
▁partnership 1
ating 1
▁hat 1
▁alliance 1
▁cabinet 1
▁reaction 1
▁criticism 1
▁lane 1
▁affect 1
my 1
▁weird 1
▁mp 1
▁agents 1
les 1
▁dividend 1
▁prosecutors 1
▁në 1
▁signing 1
▁kansas 1
▁hollywood 1
house 1
▁crimes 1
▁inspired 1
▁stocks 1
▁chi 1
▁minimum 1
▁zealand 1
▁li 1
▁package 1
▁closing 1
▁mail 1
▁va 1
▁duty 1
▁attempts 1
▁bitcoin 1
▁mixed 1
▁trend 1
▁hundred 1
▁fixed 1
▁officially 1
▁storage 1
▁pacific 1
▁delivery 1
▁75 1
▁brings 1
▁holds 1
lan 1
▁suicide 1
▁selected 1
▁granted 1
▁constitution 1
▁hitting 1
▁speaker 1
▁offense 1
▁contest 1
▁elements 1
▁sight 1
▁leads 1
im 1
▁drinking 1
ary 1
▁veteran 1
▁experiences 1
▁distribution 1
▁stephen 1
▁formula 1
▁properties 1
▁exist 1
▁); 1
▁roads 1
▁minnesota 1
ise 1
▁salt 1
▁semi 1
▁2002 1
ze 1
▁asian 1
▁penalty 1
▁argued 1
▁breakfast 1
all 1
▁tie 1
▁represent 1
▁je 1
▁invited 1
▁returns 1
▁dedicated 1
▁discussed 1
▁mode 1
▁scotland 1
ney 1
▁gop 1
ised 1
▁competitive 1
▁scheme 1
▁flag 1
▁suggests 1
▁document 1
▁llc 1
▁resolution 1
▁er 1
ful 1
▁milk 1
▁upset 1
town 1
▁continuing 1
▁tu 1
▁wins 1
▁shock 1
▁racing 1
▁extreme 1
▁transaction 1
long 1
▁engineering 1
▁pitch 1
▁roughly 1
▁technologies 1
▁tower 1
▁cu 1
▁harder 1
▁pat 1
▁favor 1
▁crown 1
▁bills 1
▁spain 1
▁dealing 1
▁hi 1
▁programme 1
▁institutions 1
▁edition 1
▁cnn 1
▁copy 1
▁philadelphia 1
po 1
▁manner 1
▁barely 1
net 1
▁assistance 1
í 1
▁forms 1
▁celebrate 1
▁fiscal 1
▁closely 1
▁sending 1
▁publicly 1
▁raising 1
ous 1
▁cleveland 1
ny 1
▁shoes 1
▁..." 1
▁branch 1
▁pe 1
50 1
▁weekly 1
▁opposite 1
zi 1
▁combat 1
▁producer 1
▁significantly 1
10 1
▁sarah 1
▁messages 1
▁meetings 1
yard 1
▁tony 1
if 1
▁laugh 1
▁amid 1
ik 1
▁driven 1
month 1
▁blame 1
▁territory 1
▁linked 1
▁excellent 1
▁involving 1
▁importance 1
▁pink 1
▁clients 1
▁employee 1
▁visiting 1
▁register 1
▁tip 1
▁ar 1
▁roof 1
▁posts 1
ran 1
▁struggling 1
▁honest 1
▁42 1
▁evil 1
▁falls 1
▁38 1
▁actress 1
▁wing 1
▁literally 1
▁forecast 1
dy 1
▁concert 1
▁communication 1
▁nigeria 1
▁perspective 1
kin 1
▁alabama 1
▁pilot 1
▁incredible 1
▁severe 1
▁widely 1
▁somewhat 1
▁consensus 1
▁possession 1
▁heads 1
▁weapon 1
▁heavily 1
▁sessions 1
▁lies 1
▁unknown 1
▁corp 1
▁religion 1
▁mile 1
▁tall 1
▁tri 1
▁margin 1
▁representatives 1
▁bo 1
á 1
▁po 1
▁shoot 1
▁newly 1
▁android 1
op 1
▁acquired 1
▁violent 1
▁37 1
ang 1
law 1
▁humans 1
▁fa 1
▁knee 1
▁impressive 1
▁pregnant 1
▁!! 1
▁fairly 1
▁proper 1
▁equity 1
▁reaching 1
▁gained 1
▁critics 1
▁represents 1
▁carbon 1
▁confident 1
▁switch 1
▁• 1
▁hide 1
▁cutting 1
▁principal 1
▁hillary 1
▁replied 1
▁moves 1
foot 1
▁yard 1
▁soccer 1
▁franchise 1
▁commissioner 1
▁decline 1
▁initiative 1
▁rear 1
▁referred 1
bar 1
▁scientific 1
▁founder 1
▁bench 1
▁ali 1
▁ver 1
▁applied 1
▁registered 1
▁payment 1
▁aug 1
▁grace 1
▁regime 1
ol 1
▁taste 1
▁atlanta 1
▁cry 1
▁feelings 1
▁politicians 1
▁circumstances 1
▁es 1
▁combination 1
▁dallas 1
▁category 1
▁resident 1
▁iphone 1
▁microsoft 1
▁chosen 1
▁chicken 1
▁represented 1
▁pi 1
▁moore 1
▁ends 1
▁arena 1
▁walls 1
▁client 1
▁houses 1
▁representative 1
▁compete 1
▁anthony 1
but 1
▁frame 1
▁useful 1
▁participants 1
▁gross 1
▁bird 1
▁estimates 1
▁gap 1
▁mainly 1
▁capable 1
▁ken 1
▁newsletter 1
▁threatened 1
▁sanders 1
ive 1
▁deeply 1
▁stronger 1
▁): 1
▁paint 1
▁letters 1
▁sanctions 1
▁handed 1
▁cbs 1
▁locations 1
.2 1
▁guest 1
▁permanent 1
▁diet 1
▁awarded 1
▁nyse 1
▁holy 1
gi 1
▁reference 1
▁youtube 1
▁earn 1
▁opposed 1
▁listening 1
▁bathroom 1
▁informed 1
▁cycle 1
▁staying 1
▁battery 1
mar 1
▁retirement 1
▁motor 1
▁manufacturing 1
▁jay 1
▁democrat 1
▁normally 1
▁1970 1
han 1
▁orders 1
▁com 1
▁48 1
ance 1
▁khan 1
▁encourage 1
▁worldwide 1
▁josh 1
▁bunch 1
▁dozen 1
▁expert 1
▁practices 1
▁marine 1
) 1
▁65 1
▁guns 1
▁exit 1
▁pattern 1
▁license 1
her 1
▁bat 1
▁teach 1
▁object 1
▁tweeted 1
.1 1
▁ruled 1
ru 1
▁somebody 1
▁plate 1
▁joining 1
▁protests 1
▁losses 1
▁memories 1
▁luck 1
▁deaths 1
▁prepare 1
▁1,000 1
cha 1
▁attacked 1
▁currency 1
▁relationships 1
▁loud 1
▁grabbed 1
▁rob 1
▁3- 1
▁context 1
▁jumped 1
▁weak 1
▁promote 1
▁anniversary 1
▁regulations 1
▁danger 1
▁harm 1
▁justin 1
▁diego 1
▁calm 1
▁smiled 1
▁latter 1
jo 1
tic 1
▁55 1
▁select 1
▁destroyed 1
▁chase 1
▁shirt 1
▁41 1
▁coal 1
▁patrick 1
era 1
▁rush 1
▁risks 1
▁innings 1
▁ancient 1
▁mall 1
▁degrees 1
▁till 1
▁mini 1
▁engaged 1
▁hang 1
▁democracy 1
▁micro 1
▁44 1
▁clock 1
▁mistake 1
▁constant 1
▁reporter 1
▁corruption 1
▁appointment 1
hu 1
▁readers 1
▁raw 1
▁moscow 1
▁folks 1
▁stretch 1
▁fingers 1
▁essential 1
▁saved 1
▁primarily 1
▁besides 1
▁bio 1
▁threats 1
class 1
▁detail 1
berg 1
▁blow 1
▁pc 1
▁profile 1
free 1
▁deals 1
▁nasdaq 1
▁hunt 1
▁settled 1
▁editing 1
▁sleeping 1
▁terrible 1
▁follows 1
▁ray 1
▁morgan 1
▁repeatedly 1
▁asset 1
▁woods 1
▁chemical 1
ated 1
▁passes 1
ani 1
▁cream 1
-19 1
▁selection 1
▁universe 1
▁ties 1
▁passengers 1
▁nose 1
▁updates 1
▁fought 1
▁hey 1
▁temperature 1
▁ltd 1
▁ram 1
▁desk 1
▁wealth 1
▁participate 1
▁agenda 1
▁anger 1
ku 1
▁drawn 1
▁portfolio 1
down 1
▁loves 1
▁powers 1
▁everywhere 1
▁ill 1
▁dave 1
▁strategic 1
▁bureau 1
▁për 1
▁payments 1
▁regardless 1
▁stolen 1
▁10- 1
▁expression 1
▁defend 1
▁lying 1
▁acts 1
▁pages 1
▁captured 1
▁personnel 1
▁friendly 1
▁temple 1
▁gang 1
▁personally 1
▁understood 1
▁complaint 1
▁ford 1
▁independence 1
▁employment 1
▁riding 1
▁recording 1
▁olympic 1
▁chances 1
▁ce 1
▁print 1
▁revolution 1
▁silence 1
▁rail 1
▁fraud 1
▁lewis 1
▁meal 1
▁gray 1
▁fallen 1
▁interior 1
ju 1
▁lawyers 1
▁vast 1
▁chart 1
▁ward 1
▁tweet 1
▁43 1
▁jury 1
▁urged 1
▁putin 1
▁entering 1
▁tap 1
▁roman 1
▁appreciate 1
▁fees 1
▁rejected 1
▁sydney 1
bi 1
▁bin 1
▁1999 1
▁walker 1
▁investigating 1
▁singapore 1
▁gathered 1
▁400 1
▁lab 1
ung 1
▁comfort 1
em 1
▁academic 1
▁hoped 1
ong 1
▁pennsylvania 1
▁regularly 1
▁constantly 1
ino 1
▁admit 1
▁suspended 1
▁aimed 1
▁hanging 1
▁mess 1
▁noise 1
▁survive 1
▁targets 1
related 1
▁allen 1
▁39 1
▁dear 1
vo 1
▁recognized 1
▁illinois 1
▁settlement 1
▁ear 1
ker 1
▁connect 1
▁unlikely 1
▁proved 1
▁stream 1
▁targeted 1
▁ni 1
▁afford 1
▁bottle 1
▁fruit 1
▁amendment 1
▁maximum 1
▁estimate 1
▁elizabeth 1
▁industries 1
▁sh 1
▁castle 1
▁button 1
▁frequently 1
▁portion 1
▁adopted 1
▁anderson 1
▁belt 1
▁shit 1
▁sets 1
▁150 1
▁rick 1
▁disaster 1
▁colleagues 1
▁brazil 1
▁theme 1
▁ontario 1
▁arab 1
▁dressed 1
▁gov 1
▁simon 1
▁ju 1
head 1
▁fewer 1
▁circle 1
▁enemy 1
▁waited 1
▁effectively 1
▁contrast 1
▁aim 1
▁defeated 1
let 1
▁dating 1
▁wore 1
▁grateful 1
ck 1
▁beijing 1
▁firms 1
▁causes 1
▁tackle 1
▁negotiations 1
mon 1
▁za 1
▁convicted 1
▁comedy 1
▁mount 1
▁guests 1
▁euro 1
▁adds 1
▁iowa 1
chi 1
▁custody 1
▁op 1
▁{ 1
▁immigrants 1
▁afghanistan 1
▁por 1
▁fields 1
▁beating 1
▁convention 1
▁columbia 1
.3 1
▁dozens 1
▁veterans 1
▁organized 1
▁protected 1
▁chocolate 1
▁recognize 1
ship 1
▁describe 1
▁letting 1
▁witness 1
▁finger 1
▁healthcare 1
▁duke 1
▁error 1
▁requirements 1
▁bomb 1
▁sec 1
▁metro 1
▁featuring 1
▁contains 1
▁lock 1
▁seventh 1
▁nurse 1
tor 1
▁increases 1
▁stations 1
▁terror 1
▁rape 1
▁disney 1
,000 1
▁fantastic 1
▁funeral 1
▁empire 1
▁peak 1
▁km 1
▁whenever 1
oc 1
▁struggled 1
▁congressional 1
▁hired 1
ita 1
▁thin 1
▁saint 1
▁ra 1
▁consistent 1
▁tracks 1
▁marked 1
war 1
▁tradition 1
▁ja 1
.4 1
▁gonna 1
ee 1
▁fee 1
▁ch 1
▁properly 1
▁allies 1
▁charity 1
▁opponents 1
▁greek 1
▁resulted 1
▁vi 1
▁necessarily 1
ura 1
▁creek 1
tv 1
mp 1
▁mu 1
▁yo 1
▁essentially 1
▁electronic 1
board 1
▁mexican 1
▁odd 1
▁stupid 1
▁drawing 1
▁grab 1
▁stable 1
▁perfectly 1
▁hidden 1
▁typical 1
▁plot 1
▁wars 1
▁counsel 1
▁lifted 1
wing 1
▁oregon 1
▁mill 1
▁awareness 1
▁obtained 1
you 1
▁updated 1
▁wanting 1
▁priority 1
ini 1
▁austin 1
▁terrorist 1
hour 1
▁thick 1
▁kong 1
▁answers 1
▁performing 1
▁circuit 1
▁pic 1
▁delhi 1
▁hero 1
▁electricity 1
0 1
▁incredibly 1
▁findings 1
▁elsewhere 1
▁rookie 1
▁hong 1
▁permission 1
ite 1
▁cha 1
round 1
▁rolling 1
▁consecutive 1
▁headquarters 1
▁pride 1
▁scared 1
▁detailed 1
▁ross 1
▁childhood 1
▁segment 1
▁uncle 1
▁controversial 1
▁dreams 1
▁figured 1
▁nbc 1
▁collected 1
▁respectively 1
▁abc 1
tz 1
▁gate 1
▁passenger 1
▁ambassador 1
▁hurricane 1
▁holdings 1
▁ro 1
▁suspected 1
▁railway 1
▁consequences 1
▁ranked 1
▁giants 1
▁solo 1
▁exact 1
▁answered 1
called 1
▁1998 1
▁relative 1
▁playoff 1
▁rough 1
▁random 1
ball 1
▁improvement 1
▁failing 1
▁reflect 1
posted 1
▁jose 1
▁formal 1
▁pulling 1
▁approached 1
▁oklahoma 1
▁monthly 1
▁routine 1
▁engage 1
▁cute 1
▁hills 1
▁babies 1
▁string 1
▁soviet 1
▁teeth 1
▁har 1
ara 1
▁tank 1
life 1
ă 1
▁affordable 1
ai 1
▁challenging 1
▁tennessee 1
▁apps 1
ig 1
▁outcome 1
▁exposed 1
▁covering 1
▁depression 1
▁prominent 1
▁throwing 1
▁pleased 1
▁depending 1
▁pin 1
▁extension 1
▁journalists 1
▁cal 1
▁bedroom 1
▁inflation 1
▁emerged 1
▁controlled 1
▁unusual 1
▁mum 1
▁chelsea 1
▁methods 1
▁investments 1
▁assist 1
▁laughed 1
▁47 1
▁temperatures 1
▁visual 1
▁locked 1
▁lap 1
▁46 1
▁securities 1
▁reputation 1
▁concluded 1
,0 1
▁rolled 1
▁writers 1
▁temporary 1
▁managing 1
▁lovely 1
▁footage 1
▁rival 1
level 1
▁reveal 1
▁passion 1
▁claiming 1
▁crying 1
▁harris 1
▁operate 1
▁ph 1
▁resistance 1
30 1
▁medium 1
▁argue 1
▁deadline 1
▁replacement 1
▁trained 1
▁thousand 1
▁commander 1
▁counts 1
▁relevant 1
▁cheap 1
▁differences 1
▁gear 1
▁cable 1
▁invest 1
▁angel 1
ada 1
­ 1
▁wisconsin 1
ff 1
▁audio 1
american 1
▁developers 1
▁behalf 1
▁tan 1
▁col 1
▁medal 1
du 1
▁worker 1
gan 1
▁jon 1
▁encouraged 1
▁explains 1
▁signal 1
▁coaches 1
▁victoria 1
▁remembered 1
▁aggressive 1
▁1960 1
▁grass 1
▁dc 1
▁activists 1
▁chamber 1
▁emails 1
▁topic 1
▁girlfriend 1
red 1
▁lift 1
▁rice 1
▁poverty 1
▁arrive 1
▁woke 1
▁clothing 1
▁strongly 1
▁sentenced 1
har 1
▁theater 1
▁tries 1
▁birds 1
▁regions 1
▁networks 1
▁supplies 1
▁gen 1
▁sin 1
▁collect 1
▁governments 1
▁backed 1
ft 1
▁flowers 1
▁entrance 1
▁grey 1
▁clubs 1
▁roster 1
▁triple 1
▁stomach 1
▁checked 1
▁globe 1
▁bra 1
▁moral 1
▁label 1
▁inches 1
▁jet 1
▁keeps 1
▁cor 1
ists 1
▁foster 1
ez 1
▁fail 1
▁assists 1
▁tested 1
▁jean 1
▁cheese 1
▁matthew 1
▁bears 1
▁proof 1
▁vacation 1
▁wondering 1
▁hosted 1
▁arabia 1
▁ny 1
▁warriors 1
ile 1
▁liverpool 1
▁singing 1
▁sc 1
▁thrown 1
ea 1
▁explore 1
▁outstanding 1
ial 1
▁fe 1
▁constitutional 1
▁vulnerable 1
▁streak 1
▁refugees 1
▁agriculture 1
▁filing 1
port 1
▁valuable 1
▁existence 1
▁horror 1
ano 1
mm 1
▁51 1
▁olympics 1
▁institutional 1
▁craft 1
▁climb 1
pro 1
▁asks 1
▁heritage 1
▁investigate 1
▁loans 1
▁pure 1
▁carefully 1
▁ge 1
▁graduate 1
▁pocket 1
▁sha 1
-10 1
▁objective 1
▁mining 1
▁factory 1
▁phil 1
ring 1
▁wheel 1
▁brands 1
▁ron 1
▁52 1
▁expecting 1
▁fault 1
▁cricket 1
▁clark 1
▁articles 1
▁gathering 1
▁assigned 1
▁recommended 1
▁bags 1
▁blocks 1
▁fame 1
▁hardly 1
▁shadow 1
▁vital 1
▁extent 1
▁palace 1
▁thinks 1
▁steam 1
▁successfully 1
▁links 1
▁crucial 1
▁lips 1
▁therapy 1
▁resulting 1
▁gar 1
▁rebounds 1
ray 1
▁bible 1
▁chat 1
▁capture 1
▁!) 1
ities 1
▁ba 1
af 1
▁alexander 1
▁protesters 1
▁intense 1
▁advertising 1
▁recognition 1
▁shower 1
▁nhl 1
▁shelter 1
▁pray 1
-2 1
.9 1
▁indiana 1
▁facts 1
▁contain 1
▁yield 1
▁achieved 1
▁preparing 1
▁ash 1
▁load 1
▁journalist 1
▁tag 1
▁scenes 1
▁studied 1
vin 1
▁mirror 1
▁painting 1
▁nervous 1
▁singh 1
▁ga 1
▁choices 1
ett 1
▁occur 1
▁rent 1
▁roles 1
▁covers 1
▁violation 1
▁secondary 1
▁dean 1
▁cannabis 1
▁spokesperson 1
-5 1
▁< 1
▁innovation 1
▁tone 1
▁cake 1
▁belief 1
▁prospect 1
▁enjoying 1
▁crossing 1
mail 1
▁arrival 1
▁landing 1
▁fantasy 1
-3 1
▁hamilton 1
▁prayer 1
ola 1
▁seed 1
▁opponent 1
▁cd 1
▁elite 1
su 1
▁blind 1
▁sar 1
▁ham 1
ent 1
▁serves 1
▁volunteers 1
▁loose 1
▁charlie 1
▁limits 1
▁burning 1
▁ideal 1
▁terrorism 1
gu 1
▁exclusive 1
▁marks 1
▁smell 1
▁observed 1
▁trailer 1
▁indicated 1
▁hip 1
▁palm 1
▁1997 1
▁banking 1
▁expanded 1
▁sean 1
▁islands 1
▁utah 1
▁quit 1
▁minority 1
▁pipeline 1
▁skill 1
▁mood 1
▁bread 1
▁rarely 1
▁cited 1
,9 1
▁anybody 1
▁spoken 1
▁resort 1
▁monitor 1
▁menu 1
▁races 1
▁recommend 1
▁bail 1
▁gallery 1
▁1996 1
▁picking 1
▁denver 1
▁silent 1
▁honestly 1
▁missile 1
▁output 1
▁finishing 1
▁baltimore 1
▁legislative 1
▁representing 1
▁boyfriend 1
▁virtual 1
▁cameras 1
▁thompson 1
▁fc 1
▁corn 1
▁citizen 1
▁files 1
▁deck 1
▁der 1
▁papers 1
▁netflix 1
▁alert 1
▁wi 1
▁probe 1
▁establishment 1
ado 1
▁gary 1
▁legacy 1
ow 1
▁athletes 1
▁extensive 1
▁wage 1
▁cruz 1
▁restaurants 1
▁anna 1
▁turkish 1
tu 1
▁%, 1
ou 1
▁enable 1
▁universal 1
▁celebration 1
▁rooms 1
▁appearances 1
▁sing 1
▁defined 1
▁nu 1
▁contained 1
▁recall 1
▁kate 1
▁assume 1
can 1
▁kentucky 1
state 1
▁inning 1
▁aged 1
▁che 1
▁organisation 1
▁sudden 1
▁les 1
▁aaron 1
▁discovery 1
▁improving 1
▁ease 1
▁illness 1
▁sample 1
▁residence 1
▁begun 1
▁writes 1
▁jonathan 1
▁guidance 1
▁athletic 1
▁luke 1
.6 1
▁scandal 1
▁insisted 1
▁atmosphere 1
▁convinced 1
▁burn 1
▁wales 1
▁complaints 1
▁eagles 1
▁titles 1
week 1
▁sch 1
▁flash 1
▁household 1
▁delay 1
▁maryland 1
▁missouri 1
▁exposure 1
ski 1
▁math 1
▁reasonable 1
▁arsenal 1
▁championships 1
▁mountains 1
▁dna 1
water 1
▁forum 1
▁absence 1
▁symptoms 1
▁gains 1
▁cooperation 1
▁confirm 1
-4 1
▁shook 1
▁adventure 1
▁attached 1
▁mueller 1
▁surveillance 1
▁barack 1
▁blocked 1
▁spokeswoman 1
▁provider 1
▁kiss 1
▁demands 1
▁unclear 1
▁kit 1
▁howard 1
▁statistics 1
▁soil 1
▁survived 1
pi 1
▁vancouver 1
▁establish 1
▁provincial 1
▁patrol 1
▁ages 1
▁engagement 1
▁extend 1
▁conclusion 1
▁loving 1
▁format 1
▁radical 1
▁dust 1
▁rid 1
▁reviews 1
▁www 1
▁polls 1
▁remarks 1
▁imp 1
▁dar 1
▁crossed 1
▁cam 1
▁pictured 1
▁} 1
▁traveling 1
▁teen 1
▁solve 1
▁guitar 1
40 1
▁item 1
▁massachusetts 1
▁abortion 1
▁gym 1
▁53 1
▁personality 1
▁graham 1
▁searching 1
tra 1
▁landed 1
▁eve 1
▁lowest 1
▁goods 1
hl 1
▁ukraine 1
▁fu 1
▁sum 1
▁kinds 1
mann 1
▁careful 1
▁depth 1
▁behaviour 1
▁packed 1
▁situations 1
▁touchdown 1
▁bars 1
▁kicked 1
▁server 1
▁eighth 1
▁submitted 1
▁contracts 1
ev 1
▁54 1
▁fishing 1
▁legislature 1
more 1
▁dancing 1
▁dhe 1
▁spin 1
▁atlantic 1
▁conversations 1
▁tips 1
▁installed 1
minute 1
▁publication 1
qui 1
▁xi 1
▁assessment 1
▁suffer 1
▁pittsburgh 1
▁prefer 1
▁spotted 1
▁scottish 1
▁© 1
▁galaxy 1
▁mat 1
▁ships 1
▁1995 1
▁forth 1
▁dramatic 1
▁egypt 1
▁referring 1
dale 1
▁clinical 1
▁hung 1
▁getty 1
▁commit 1
▁sisters 1
▁shocked 1
▁greg 1
▁collaboration 1
▁harassment 1
▁narrow 1
▁damaged 1
▁knife 1
▁pizza 1
▁twin 1
▁princess 1
ries 1
▁1.5 1
▁cleaning 1
▁kennedy 1
$ 1
▁prosecutor 1
▁kyle 1
▁remote 1
▁ti 1
▁cooking 1
▁disappointed 1
▁latin 1
▁comic 1
▁surely 1
▁attitude 1
▁redistributed 1
60 1
▁1994 1
ette 1
▁repeat 1
▁banned 1
▁edward 1
▁pleaded 1
▁jews 1
▁apparent 1
▁settle 1
▁asleep 1
▁bull 1
▁requests 1
▁pregnancy 1
▁pit 1
▁uber 1
▁ownership 1
▁bath 1
▁crude 1
bit 1
▁ultimate 1
▁actors 1
▁landscape 1
▁script 1
▁divided 1
▁abandoned 1
▁posting 1
style 1
▁fears 1
▁aspects 1
▁phones 1
season 1
use 1
▁examples 1
▁maintained 1
▁bre 1
▁touched 1
▁overnight 1
▁producers 1
▁buried 1
fe 1
▁brad 1
▁judges 1
▁dismissed 1
▁antonio 1
▁sp 1
▁momentum 1
▁damn 1
▁reduction 1
▁snap 1
▁finds 1
▁dispute 1
▁scores 1
▁hedge 1
▁discussions 1
▁concrete 1
gb 1
▁recovered 1
▁anxiety 1
▁10,000 1
▁dying 1
▁maintenance 1
▁laughing 1
▁parade 1
▁dutch 1
▁iranian 1
▁madrid 1
▁pursue 1
▁wondered 1
▁maria 1
▁smooth 1
▁educational 1
▁sheet 1
▁rod 1
▁complicated 1
▁wounded 1
▁residential 1
oh 1
▁berlin 1
▁() 1
▁receiver 1
▁bow 1
▁deficit 1
▁height 1
▁nasa 1
▁attending 1
▁winners 1
▁surrounded 1
▁flood 1
▁breast 1
,6 1
nt 1
▁addressed 1
▁neighbors 1
▁francis 1
▁progressive 1
▁everyday 1
▁transit 1
▁citing 1
▁ignore 1
▁fla 1
zo 1
▁muslims 1
▁hunter 1
▁eggs 1
▁saving 1
▁chip 1
▁blast 1
▁pants 1
▁playoffs 1
▁plain 1
▁reply 1
▁deadly 1
▁fleet 1
▁desert 1
right 1
▁repeated 1
iz 1
▁bur 1
▁tape 1
▁lesson 1
ab 1
▁machines 1
▁foods 1
▁suspects 1
▁carter 1
▁murray 1
▁64 1
▁objects 1
▁destroy 1
▁premium 1
▁jane 1
▁russell 1
▁bishop 1
▁swimming 1
isation 1
-6 1
▁fuck 1
▁!!! 1
▁nodded 1
▁producing 1
▁den 1
▁opinions 1
yn 1
▁summary 1
▁registration 1
▁encounter 1
▁pra 1
▁han 1
▁drag 1
▁wrapped 1
▁sensitive 1
▁grounds 1
▁lit 1
▁fiction 1
▁promotion 1
▁visible 1
▁offices 1
▁courts 1
ble 1
▁1992 1
▁crystal 1
▁ncaa 1
▁mag 1
▁span 1
▁versus 1
▁fighters 1
rin 1
▁savings 1
▁resource 1
▁rapid 1
▁bruce 1
▁cm 1
▁naturally 1
-7 1
▁iii 1
▁oldest 1
▁emerging 1
org 1
▁viewers 1
▁gaming 1
▁lessons 1
▁element 1
▁equivalent 1
▁samsung 1
▁requested 1
▁monitoring 1
▁sons 1
▁steven 1
▁dates 1
▁defending 1
▁winds 1
▁ty 1
▁involvement 1
▁witnesses 1
▁shell 1
▁implementation 1
▁venture 1
▁episodes 1
▁sees 1
▁presentation 1
▁jam 1
stone 1
▁favourite 1
▁lions 1
▁inner 1
▁administrative 1
▁regulation 1
▁incidents 1
▁hub 1
▁contribute 1
▁pie 1
▁56 1
▁intent 1
▁slip 1
▁accurate 1
▁overseas 1
cu 1
▁var 1
▁occasion 1
▁tail 1
worth 1
▁gulf 1
▁authors 1
▁colors 1
▁log 1
▁cats 1
▁reducing 1
▁horses 1
▁amy 1
▁consumption 1
▁performances 1
▁wolf 1
▁rugby 1
▁ki 1
▁couch 1
▁associate 1
ida 1
▁proven 1
▁jacob 1
▁volunteer 1
▁purposes 1
▁centers 1
▁emissions 1
 1
▁adviser 1
▁innocent 1
▁joke 1
▁72 1
▁beside 1
play 1
▁hardware 1
▁boxes 1
▁spots 1
▁external 1
▁garage 1
▁deeper 1
▁ze 1
▁generated 1
▁pleasure 1
▁lineup 1
ins 1
▁hook 1
▁reminded 1
▁recalled 1
▁decent 1
▁aunt 1
▁~ 1
ric 1
▁phoenix 1
▁gifts 1
▁il 1
▁recover 1
▁custom 1
▁homeless 1
▁liquid 1
▁regulatory 1
ping 1
▁questioned 1
▁palestinian 1
▁federation 1
▁acknowledged 1
▁walks 1
▁fate 1
▁confused 1
▁wildlife 1
▁warren 1
▁jake 1
▁ballot 1
▁rank 1
▁shore 1
▁strip 1
▁physically 1
▁cooper 1
nes 1
▁badly 1
▁swing 1
▁speaks 1
▁quarterly 1
▁enterprise 1
▁helpful 1
▁processing 1
▁comparison 1
ky 1
▁emotions 1
▁hire 1
▁rapidly 1
▁cape 1
ria 1
▁departure 1
▁egg 1
sch 1
▁orleans 1
▁senators 1
▁merely 1
▁investor 1
▁hosts 1
▁coaching 1
▁bone 1
▁tariffs 1
▁vietnam 1
▁£1 1
▁lifetime 1
▁welfare 1
ding 1
▁pope 1
▁attempting 1
▁comprehensive 1
▁mal 1
▁collapse 1
▁trick 1
▁burden 1
▁lately 1
▁description 1
hand 1
▁striking 1
▁parks 1
▁compensation 1
▁dirty 1
▁knock 1
hr 1
▁subsequently 1
▁cohen 1
▁processes 1
-12 1
▁jimmy 1
▁rushed 1
ane 1
▁formation 1
▁superior 1
▁1993 1
▁discover 1
▁institution 1
▁corps 1
nie 1
▁electoral 1
▁patriots 1
▁origin 1
▁hay 1
cher 1
lu 1
▁waves 1
tro 1
▁promises 1
▁membership 1
▁diversity 1
▁equally 1
-8 1
▁fundamental 1
▁acquisition 1
▁amounts 1
▁throat 1
▁fence 1
▁indicate 1
▁steady 1
▁moderate 1
▁operated 1
▁handful 1
▁restrictions 1
▁default 1
▁nap 1
▁salary 1
▁cleared 1
▁ve 1
▁documentary 1
▁expenses 1
▁bound 1
,8 1
▁operates 1
▁repair 1
▁warrant 1
▁forgotten 1
▁jazz 1
▁gene 1
▁celebrated 1
ell 1
▁aspect 1
▁lifestyle 1
▁scenario 1
▁surprising 1
▁jets 1
▁generate 1
▁spiritual 1
▁opens 1
▁implement 1
▁modi 1
▁handling 1
▁testimony 1
▁beta 1
▁presidency 1
▁puts 1
▁eligible 1
▁introduction 1
▁tar 1
▁espn 1
ius 1
elle 1
▁explanation 1
▁platforms 1
▁commerce 1
our 1
ari 1
fer 1
▁regard 1
▁tin 1
▁subscribe 1
▁trends 1
▁fighter 1
▁flew 1
▁portland 1
ella 1
▁heaven 1
11 1
▁racial 1
▁knocked 1
▁1950 1
▁ladies 1
▁eps 1
▁keen 1
▁ads 1
▁threatening 1
▁investigations 1
▁root 1
▁luxury 1
born 1
▁baker 1
▁tourism 1
▁petition 1
▁charlotte 1
▁judgment 1
▁ob 1
▁airlines 1
▁defender 1
▁alarm 1
▁widespread 1
ability 1
▁deserve 1
▁cyber 1
▁briefly 1
.8 1
80 1
▁disclosure 1
eg 1
▁titled 1
▁voices 1
▁58 1
▁functions 1
▁yu 1
▁recommendations 1
▁dragon 1
▁terminal 1
▁transferred 1
▁bug 1
▁focusing 1
▁57 1
,1 1
▁improvements 1
▁pr 1
▁notable 1
▁collective 1
▁crack 1
▁rocket 1
▁dialogue 1
▁gordon 1
▁shake 1
▁sustainable 1
▁nelson 1
▁fabric 1
▁developer 1
▁mistakes 1
▁liberty 1
▁mainstream 1
▁abroad 1
▁toys 1
▁universities 1
▁mon 1
▁cia 1
▁melbourne 1
▁firing 1
▁seemingly 1
▁ufc 1
▁viewed 1
▁streaming 1
▁wash 1
ok 1
▁kings 1
▁interviews 1
▁efficient 1
▁tennis 1
kar 1
▁grandmother 1
▁contacted 1
▁suggesting 1
▁definition 1
▁isis 1
▁waters 1
▁impressed 1
▁nomination 1
▁donations 1
▁killer 1
▁spell 1
▁um 1
▁thirty 1
▁pub 1
▁narrative 1
,7 1
▁fled 1
▁clinic 1
▁reader 1
making 1
▁strikes 1
▁mega 1
▁1991 1
▁ci 1
sha 1
ena 1
▁excuse 1
ula 1
▁migrants 1
▁studying 1
▁elementary 1
work 1
▁horrible 1
gar 1
▁exception 1
▁smartphone 1
▁contributions 1
▁oakland 1
air 1
▁bc 1
ü 1
▁suspension 1
▁intention 1
▁slide 1
▁fur 1
▁66 1
▁bjp 1
▁monster 1
▁]. 1
med 1
ven 1
▁competing 1
▁similarly 1
▁cock 1
▁timing 1
king 1
▁guardian 1
▁encouraging 1
▁announce 1
▁val 1
▁referendum 1
▁wings 1
▁dig 1
▁versions 1
▁mystery 1
ud 1
▁ninth 1
▁tokyo 1
▁ian 1
▁supports 1
▁flights 1
-20 1
▁rely 1
▁framework 1
▁nights 1
▁jeremy 1
▁substantial 1
▁hu 1
▁shoulders 1
▁column 1
▁hunting 1
▁components 1
▁counties 1
▁montreal 1
▁breathing 1
▁feedback 1
▁hal 1
▁shame 1
▁ottawa 1
▁ps 1
▁contemporary 1
▁treasury 1
▁criticized 1
▁bass 1
▁guarantee 1
▁islam 1
▁burned 1
ala 1
wan 1
▁designer 1
▁hospitals 1
▁ears 1
▁wow 1
that 1
▁census 1
▁tra 1
ver 1
bu 1
▁insider 1
▁programming 1
▁guards 1
▁hearts 1
▁controversy 1
▁95 1
▁organic 1
▁butter 1
cho 1
▁gather 1
▁ann 1
▁subsequent 1
▁tesla 1
▁craig 1
▁occasionally 1
▁ye 1
▁marvel 1
▁ranks 1
▁nevada 1
▁sal 1
▁protecting 1
▁christopher 1
▁jar 1
▁opera 1
▁districts 1
▁vo 1
▁dam 1
25 1
▁conservation 1
▁gi 1
▁sweden 1
▁85 1
▁operator 1
▁marathon 1
▁min 1
▁dropping 1
view 1
ren 1
▁alan 1
▁lisa 1
▁twelve 1
▁southeast 1
▁dick 1
▁absolute 1
▁loop 1
▁conspiracy 1
▁assumed 1
▁activist 1
▁techniques 1
▁demanded 1
▁stanley 1
▁odds 1
▁suppose 1
▁racist 1
▁describes 1
high 1
▁wound 1
▁purchasing 1
▁ignored 1
▁:) 1
▁tear 1
▁poland 1
▁brilliant 1
▁thankful 1
▁praise 1
▁manufacturers 1
▁municipal 1
▁whereas 1
▁experiment 1
▁structures 1
▁highlights 1
▁resolve 1
▁practical 1
▁stages 1
▁courtesy 1
fl 1
▁venue 1
▁indigenous 1
yo 1
▁diverse 1
▁mississippi 1
▁buffalo 1
ata 1
▁mud 1
5,000 1
▁destination 1
▁favour 1
▁250 1
ning 1
▁rounds 1
▁duties 1
▁providers 1
▁ky 1
▁demanding 1
▁inspiration 1
▁62 1
▁checking 1
▁execution 1
▁fi 1
▁automatically 1
▁procedure 1
ence 1
▁robinson 1
▁expects 1
▁breaks 1
▁promoted 1
▁tr 1
▁neighbor 1
▁forcing 1
▁rewritten 1
▁legend 1
▁20- 1
▁pastor 1
▁shi 1
▁pointing 1
▁susan 1
15 1
▁exhibition 1
▁participation 1
▁ai 1
nan 1
▁succeed 1
▁cousin 1
70 1
▁communist 1
▁ordinary 1
▁qualified 1
ira 1
▁59 1
-9 1
▁graduated 1
▁engineer 1
▁desperate 1
▁strategies 1
▁auction 1
▁daddy 1
▁containing 1
▁panic 1
▁tyler 1
ot 1
▁tongue 1
art 1
▁dynamic 1
▁bun 1
▁drinks 1
.7 1
▁midnight 1
▁persons 1
▁quietly 1
▁100,000 1
▁passage 1
▁ghost 1
▁grocery 1
▁bal 1
▁attractive 1
▁additionally 1
low 1
▁cameron 1
▁oak 1
▁literature 1
▁jerusalem 1
▁towns 1
▁maker 1
▁12- 1
▁destruction 1
▁stairs 1
▁soldier 1
ö 1
▁tribute 1
▁architecture 1
▁divorce 1
▁profits 1
▁barcelona 1
▁shops 1
ip 1
gate 1
▁advocate 1
▁screaming 1
▁fool 1
eu 1
▁employed 1
▁theft 1
▁philosophy 1
▁gm 1
▁lincoln 1
▁ate 1
▁painful 1
▁tigers 1
▁calendar 1
▁cole 1
▁obtain 1
▁northwest 1
▁township 1
▁overcome 1
▁install 1
▁colour 1
ward 1
▁dirt 1
▁wire 1
▁cried 1
▁expanding 1
▁horn 1
▁flu 1
▁trophy 1
▁entitled 1
▁nowhere 1
▁followers 1
▁sexually 1
▁harvey 1
▁submit 1
▁wise 1
▁1989 1
▁roy 1
▁thanksgiving 1
▁kar 1
▁mitchell 1
▁coordinator 1
▁introduce 1
news 1
az 1
▁photograph 1
ub 1
▁lin 1
known 1
▁shield 1
ika 1
ium 1
lor 1
▁completion 1
▁frequent 1
▁pension 1
▁balls 1
ele 1
▁finals 1
▁mars 1
▁romantic 1
rk 1
▁prosecution 1
▁stopping 1
▁punishment 1
▁darkness 1
▁mor 1
▁agricultural 1
▁ski 1
tan 1
▁trades 1
▁beneath 1
▁survival 1
▁patterns 1
▁substance 1
,2 1
▁diplomatic 1
▁directors 1
▁clip 1
▁prompted 1
▁99 1
inch 1
▁partly 1
▁honey 1
▁outdoor 1
▁frustration 1
▁contribution 1
▁arguments 1
▁instructions 1
rich 1
▁burst 1
▁tons 1
▁trips 1
▁principles 1
▁preferred 1
▁representation 1
▁trillion 1
▁ted 1
▁patch 1
▁painted 1
▁discrimination 1
▁excitement 1
▁involves 1
▁adoption 1
▁marc 1
mb 1
▁jerry 1
▁refer 1
▁stability 1
▁zoo 1
▁conservatives 1
▁ethnic 1
▁sta 1
▁talented 1
▁movements 1
▁drunk 1
yan 1
▁attacking 1
▁collins 1
▁managers 1
rate 1
▁embrace 1
▁disappeared 1
▁principle 1
▁wider 1
▁visits 1
▁philip 1
▁southwest 1
▁professionals 1
▁smoking 1
ice 1
not 1
ken 1
▁ru 1
.0 1
▁carries 1
▁barrel 1
▁adams 1
▁consent 1
▁intervention 1
▁crews 1
▁blessed 1
▁ultra 1
▁ridge 1
▁holes 1
▁chaos 1
▁larry 1
▁bold 1
▁dual 1
▁peaceful 1
▁600 1
▁stressed 1
▁63 1
▁hike 1
▁signature 1
van 1
▁cow 1
▁vol 1
▁daughters 1
▁highlight 1
▁jennifer 1
▁rated 1
bel 1
ach 1
▁kin 1
▁afp 1
▁hiding 1
▁rivals 1
.5 1
▁fitness 1
▁uniform 1
▁coat 1
▁sits 1
▁pal 1
▁sounded 1
▁affair 1
▁wright 1
▁capitol 1
▁neutral 1
▁protein 1
▁sur 1
▁trash 1
▁swim 1
▁brooklyn 1
▁hungry 1
▁convince 1
▁roger 1
ib 1
▁promoting 1
len 1
▁douglas 1
▁grave 1
▁input 1
uar 1
▁cave 1
▁trains 1
▁muscle 1
cy 1
▁implemented 1
▁hosting 1
▁presents 1
▁funded 1
▁inform 1
▁connections 1
▁investing 1
▁happiness 1
▁nato 1
▁longest 1
▁consideration 1
ali 1
▁noting 1
▁bonus 1
▁runner 1
▁polish 1
pur 1
▁67 1
▁gates 1
▁68 1
▁celebrity 1
▁frozen 1
▁enormous 1
light 1
▁voter 1
▁targeting 1
▁ng 1
▁sole 1
▁cruise 1
▁exists 1
▁illegally 1
▁sang 1
▁friendship 1
bed 1
▁ceiling 1
▁rangers 1
▁proposals 1
▁kan 1
▁unemployment 1
▁knight 1
▁sr 1
▁commonly 1
million 1
▁airline 1
aw 1
wi 1
▁ol 1
▁meaningful 1
ram 1
▁inquiry 1
▁freshman 1
▁minds 1
▁satellite 1
shi 1
▁cop 1
▁recipe 1
▁wayne 1
▁61 1
▁welcomed 1
▁distributed 1
▁advised 1
ible 1
▁orlando 1
▁scary 1
▁efficiency 1
▁anne 1
▁rome 1
▁logo 1
▁greece 1
▁secured 1
▁promising 1
ama 1
▁jacket 1
▁që 1
▁underground 1
▁relatives 1
▁nationwide 1
▁dj 1
▁mm 1
▁ankle 1
▁broader 1
▁shipping 1
▁quoted 1
▁categories 1
▁outlook 1
▁wooden 1
▁noon 1
▁louisiana 1
▁fucking 1
▁participated 1
▁resigned 1
▁sri 1
▁sustained 1
▁120 1
▁stewart 1
▁reverse 1
▁naked 1
▁teammates 1
ped 1
▁76 1
▁topics 1
▁cord 1
▁evans 1
▁disorder 1
▁uncomfortable 1
▁philippines 1
▁humanity 1
▁rio 1
▁detention 1
uri 1
▁nominee 1
▁campbell 1
mit 1
looking 1
▁charter 1
▁loaded 1
▁consistently 1
▁aims 1
▁advocates 1
▁database 1
▁mortgage 1
] 1
ay 1
pp 1
▁revenues 1
▁enemies 1
▁cambridge 1
▁invested 1
▁remind 1
▁evolution 1
▁separated 1
▁unexpected 1
▁cents 1
▁dawn 1
▁murphy 1
▁addiction 1
▁uncertainty 1
▁meals 1
▁civilians 1
▁curious 1
▁accessible 1
▁frustrated 1
sky 1
pin 1
▁nominated 1
are 1
▁disclosed 1
▁], 1
▁reward 1
▁tunnel 1
▁teenager 1
▁mcdonald 1
▁pending 1
▁billy 1
▁roots 1
ably 1
des 1
▁brandon 1
ris 1
▁praised 1
▁rachel 1
▁parker 1
▁grip 1
▁publishing 1
▁predicted 1
▁accompanied 1
▁impression 1
▁attract 1
▁qui 1
ag 1
▁picks 1
▁tale 1
:// 1
▁oscar 1
▁crashed 1
▁adopt 1
▁artificial 1
▁una 1
▁mel 1
▁longtime 1
▁technique 1
▁beef 1
▁intellectual 1
▁addressing 1
▁keys 1
lock 1
▁northeast 1
▁slept 1
▁virus 1
▁diagnosed 1
▁participating 1
▁seized 1
▁prevention 1
▁slipped 1
▁mason 1
▁cr 1
om 1
▁pas 1
90 1
▁crore 1
▁channels 1
ging 1
▁notion 1
▁importantly 1
▁jamie 1
▁delayed 1
▁generations 1
▁bonds 1
▁closest 1
▁faculty 1
▁quote 1
▁danny 1
▁afterwards 1
▁awful 1
dan 1
▁ministers 1
▁lawrence 1
kan 1
▁component 1
▁adjusted 1
▁tracking 1
,4 1
▁discussing 1
▁quest 1
▁controls 1
▁utility 1
winning 1
▁politician 1
▁leather 1
▁wal 1
▁periods 1
▁appeals 1
▁layer 1
▁permit 1
▁1988 1
▁parliamentary 1
▁capabilities 1
▁arc 1
▁fo 1
▁smiling 1
▁pad 1
ising 1
▁fred 1
▁franklin 1
▁pac 1
▁est 1
▁vet 1
istic 1
owned 1
▁holidays 1
▁firefighters 1
vis 1
▁expense 1
ec 1
▁lean 1
▁barn 1
▁array 1
rc 1
lee 1
99 1
▁dish 1
▁mas 1
▁carl 1
▁buck 1
▁brady 1
▁blues 1
▁chuck 1
▁pressed 1
ick 1
▁"), 1
world 1
▁carrier 1
▁shy 1
▁symbol 1
▁involve 1
▁customs 1
av 1
room 1
▁anonymous 1
ban 1
▁rocks 1
▁beaten 1
▁differently 1
▁climbed 1
▁assured 1
▁stops 1
17 1
▁shareholders 1
▁telephone 1
▁dakota 1
▁warner 1
par 1
▁warming 1
▁languages 1
▁mate 1
▁formerly 1
▁guidelines 1
▁integrated 1
▁slight 1
▁occupied 1
▁precious 1
▁speculation 1
▁hawaii 1
▁stunning 1
▁lip 1
▁rev 1
ator 1
▁furniture 1
▁executives 1
▁toilet 1
12 1
▁celebrating 1
▁taxi 1
scale 1
▁designated 1
▁explosion 1
▁parish 1
▁2,000 1
▁romance 1
rie 1
▁midfielder 1
▁trucks 1
▁imposed 1
▁2.5 1
▁deny 1
▁sword 1
▁stack 1
▁whilst 1
▁hello 1
▁reforms 1
▁computers 1
▁extraordinary 1
▁decrease 1
▁sauce 1
▁laura 1
▁trigger 1
▁transgender 1
▁duo 1
▁arguing 1
▁springs 1
▁responding 1
▁boot 1
▁removal 1
▁backing 1
ix 1
▁emma 1
▁69 1
▁brave 1
▁th 1
▁fatal 1
▁infection 1
rick 1
▁upgrade 1
▁engineers 1
▁sim 1
half 1
▁michelle 1
lon 1
▁swiss 1
▁virtually 1
▁advisory 1
▁brick 1
▁genetic 1
▁rat 1
▁flip 1
▁30- 1
▁podcast 1
▁ridiculous 1
▁instant 1
▁remarkable 1
▁designs 1
▁enhance 1
▁copies 1
▁alberta 1
▁penn 1
▁commented 1
iv 1
election 1
▁keith 1
▁operational 1
▁popularity 1
▁alpha 1
ure 1
▁saints 1
▁anticipated 1
▁stance 1
▁diamond 1
▁reminder 1
▁transformation 1
▁flooding 1
▁deployed 1
▁carpet 1
▁borders 1
▁hiring 1
ye 1
elli 1
▁perry 1
▁staring 1
▁swift 1
▁madison 1
▁feeding 1
▁ri 1
▁angels 1
val 1
▁filling 1
▁export 1
▁occasions 1
▁asylum 1
▁traveled 1
▁tragedy 1
▁buyers 1
▁ag 1
▁queensland 1
▁foul 1
▁dining 1
▁800 1
box 1
▁boom 1
▁dominated 1
▁challenged 1
▁embassy 1
▁hence 1
▁pound 1
▁steal 1
ology 1
▁grandfather 1
▁mccain 1
▁hart 1
▁rushing 1
▁tensions 1
▁starter 1
▁eliminate 1
win 1
▁touchdowns 1
▁greatly 1
▁preparation 1
▁emily 1
▁procedures 1
▁lands 1
▁tourists 1
▁maine 1
▁wrestling 1
▁sporting 1
ph 1
▁"[ 1
▁plea 1
form 1
▁arriving 1
▁gu 1
▁healing 1
▁nursing 1
▁vr 1
▁diseases 1
▁transactions 1
▁1986 1
▁parallel 1
▁coin 1
▁blamed 1
▁acted 1
▁candy 1
▁declaration 1
▁youngest 1
▁shah 1
▁wireless 1
▁journalism 1
▁constructed 1
▁au 1
▁actively 1
▁heroes 1
▁ambulance 1
▁safely 1
▁1984 1
▁beast 1
▁delicious 1
▁scope 1
▁prayers 1
rr 1
▁grid 1
▁harsh 1
▁manhattan 1
▁marshall 1
▁outfit 1
▁tens 1
▁pose 1
▁pu 1
▁detained 1
▁exports 1
▁households 1
▁purple 1
.50 1
zy 1
▁todd 1
▁specialist 1
▁pollution 1
▁compare 1
▁visa 1
▁flames 1
▁angle 1
▁tender 1
▁stared 1
▁disabled 1
▁blake 1
▁neo 1
▁boots 1
▁mandate 1
ue 1
ative 1
." 1
▁eager 1
▁wages 1
▁integrity 1
▁robin 1
▁deputies 1
▁cinema 1
▁mutual 1
▁creates 1
▁info 1
▁attracted 1
illa 1
▁cab 1
▁employers 1
▁screening 1
▁survivors 1
ich 1
▁preserve 1
▁explaining 1
▁awake 1
▁trials 1
ese 1
lia 1
key 1
▁juice 1
▁euros 1
▁honour 1
▁rifle 1
market 1
▁appearing 1
▁depends 1
getty 1
cap 1
▁pricing 1
▁johnny 1
bert 1
▁cre 1
▁christians 1
▁sue 1
▁restore 1
▁doug 1
▁sciences 1
▁samples 1
▁gro 1
▁terry 1
▁communicate 1
▁1987 1
▁charging 1
▁choosing 1
▁juan 1
▁mph 1
▁epic 1
▁moreover 1
▁subscription 1
▁pole 1
▁mai 1
▁spaces 1
▁terrorists 1
▁wil 1
▁witnessed 1
▁consists 1
▁delivering 1
▁projected 1
▁checks 1
▁ger 1
▁reliable 1
▁deer 1
▁von 1
▁equality 1
▁pur 1
▁arch 1
▁shutdown 1
▁iraqi 1
▁gut 1
▁attendance 1
▁ingredients 1
▁5,000 1
▁maintaining 1
▁ste 1
▁hyper 1
▁bro 1
▁worship 1
▁71 1
▁sufficient 1
▁invasion 1
▁confusion 1
▁provision 1
▁milwaukee 1
▁nc 1
▁argentina 1
▁def 1
▁watson 1
▁beliefs 1
▁pine 1
?" 1
esh 1
▁mps 1
▁refugee 1
▁dated 1
cat 1
▁classroom 1
▁innovative 1
▁churches 1
set 1
▁subjects 1
▁prospects 1
▁prisoners 1
▁rivers 1
▁amongst 1
▁bu 1
▁stating 1
iya 1
▁conviction 1
▁politically 1
▁donated 1
▁overwhelming 1
▁striker 1
▁ranking 1
▁struggles 1
▁forgot 1
▁arthur 1
▁civilian 1
▁rams 1
▁lighting 1
▁habit 1
ming 1
▁puerto 1
▁tremendous 1
▁priest 1
▁outlets 1
▁listened 1
▁strengthen 1
▁tab 1
▁knees 1
▁demonstrated 1
▁cemetery 1
ery 1
▁legitimate 1
▁alerts 1
18 1
▁converted 1
▁poly 1
▁punch 1
▁tune 1
▁stranger 1
bn 1
▁venezuela 1
ide 1
degree 1
▁experiencing 1
▁nest 1
ros 1
▁ranch 1
▁worn 1
▁volatility 1
▁stem 1
▁studios 1
▁harbor 1
▁lol 1
▁initiatives 1
▁hop 1
▁ranging 1
▁bite 1
▁mur 1
▁acres 1
▁"). 1
▁accusations 1
▁reveals 1
▁nevertheless 1
▁dominant 1
▁alaska 1
▁hy 1
▁earning 1
▁annually 1
▁detective 1
▁rebels 1
▁stan 1
▁connecticut 1
▁phrase 1
aj 1
▁sink 1
▁reign 1
made 1
▁opener 1
▁silly 1
ened 1
▁000 1
▁aviation 1
▁mama 1
burg 1
▁steep 1
▁naval 1
▁coastal 1
▁gal 1
cc 1
▁legally 1
▁sorts 1
▁concerning 1
19 1
▁compromise 1
▁complained 1
cal 1
▁tasks 1
▁morris 1
▁interface 1
▁icon 1
▁iconic 1
▁ji 1
▁treaty 1
▁meters 1
▁spectrum 1
▁fifty 1
▁resume 1
▁neil 1
24 1
▁judicial 1
ale 1
▁cincinnati 1
▁wealthy 1
▁wisdom 1
-18 1
▁speakers 1
▁attorneys 1
▁crop 1
▁robot 1
▁cabin 1
▁bare 1
▁retailers 1
▁rebel 1
▁vocal 1
▁scientist 1
din 1
▁interviewed 1
▁quebec 1
▁violations 1
▁opt 1
▁nonprofit 1
▁trapped 1
▁harvard 1
ups 1
▁skip 1
tal 1
▁elderly 1
14 1
▁pleasant 1
▁difficulty 1
ons 1
lar 1
▁beloved 1
▁unity 1
▁ensuring 1
▁preliminary 1
16 1
▁meets 1
▁acid 1
tter 1
▁tha 1
bank 1
▁fin 1
▁removing 1
dis 1
▁helicopter 1
▁displayed 1
▁sections 1
▁thunder 1
▁define 1
▁courage 1
▁lightning 1
ties 1
▁valid 1
bra 1
▁tension 1
▁mt 1
▁malaysia 1
▁drives 1
▁glasses 1
▁backup 1
▁electrical 1
▁regret 1
▁bother 1
▁handled 1
▁1985 1
▁intersection 1
75 1
ants 1
fo 1
ën 1
▁centuries 1
▁ugly 1
▁medication 1
rat 1
▁homeland 1
13 1
tel 1
▁bronze 1
pt 1
▁nathan 1
▁scan 1
▁resignation 1
▁switzerland 1
▁ab 1
▁routes 1
▁requirement 1
▁bri 1
tion 1
▁ser 1
▁sox 1
▁jumping 1
▁twins 1
▁statue 1
▁ec 1
▁ah 1
▁throws 1
▁sooner 1
▁editorial 1
▁react 1
35 1
▁maps 1
sized 1
gle 1
▁socialist 1
▁racism 1
▁mumbai 1
▁browser 1
fu 1
▁monetary 1
▁pile 1
▁teenage 1
ians 1
▁ly 1
▁surge 1
▁turner 1
▁zacks 1
ever 1
▁indonesia 1
▁travelling 1
what 1
▁hammer 1
▁bones 1
▁belong 1
▁netherlands 1
▁intel 1
▁spare 1
▁emphasis 1
▁classified 1
▁collision 1
▁horizon 1
tar 1
care 1
▁competitors 1
▁fossil 1
die 1
▁mask 1
▁insight 1
▁misconduct 1
▁oxford 1
▁lease 1
▁jessica 1
▁një 1
▁overtime 1
▁char 1
ux 1
▁2-1 1
▁chef 1
▁cage 1
▁composed 1
▁exploration 1
▁halloween 1
▁relation 1
▁measured 1
▁gdp 1
▁humanitarian 1
▁sunny 1
gy 1
▁kon 1
top 1
▁easter 1
▁notably 1
▁piano 1
▁sadly 1
▁jaw 1
▁modest 1
▁radar 1
▁premiere 1
▁ren 1
▁spy 1
▁lt 1
▁curb 1
ona 1
▁raiders 1
lie 1
ily 1
▁operators 1
▁sony 1
▁predict 1
▁investigated 1
▁reception 1
nce 1
▁leaf 1
▁77 1
▁slam 1
▁flower 1
▁replacing 1
▁sara 1
▁tweets 1
▁thread 1
burn 1
▁clay 1
▁pour 1
ica 1
dr 1
▁bang 1
▁memo 1
▁eagle 1
▁describing 1
▁gradually 1
▁chin 1
▁isolated 1
▁engines 1
▁headlines 1
▁barry 1
▁farmer 1
▁strict 1
▁1979 1
▁tiger 1
▁audit 1
▁sometime 1
▁conventional 1
▁trudeau 1
▁roberts 1
▁surprisingly 1
▁clash 1
mes 1
▁pepper 1
▁arkansas 1
▁tampa 1
.30 1
▁whit 1
▁columbus 1
▁highlighted 1
▁nashville 1
▁kra 1
▁comey 1
▁oliver 1
tes 1
ora 1
ati 1
▁dip 1
▁defended 1
▁achievement 1
▁interim 1
▁unprecedented 1
zer 1
▁domain 1
▁sectors 1
▁cc 1
▁photographer 1
▁hopeful 1
▁lion 1
▁basement 1
▁bands 1
▁albert 1
iness 1
▁lists 1
▁campaigns 1
▁biological 1
▁shed 1
▁sweat 1
▁branches 1
▁renewable 1
▁spa 1
▁reviewed 1
▁examination 1
▁wo 1
▁tide 1
▁convert 1
▁73 1
▁fortune 1
▁confirmation 1
▁fisher 1
▁starring 1
▁robust 1
▁migration 1
▁recommendation 1
mos 1
▁trap 1
ose 1
▁import 1
ä 1
▁sake 1
▁refuse 1
▁workplace 1
▁riders 1
▁gaza 1
▁approve 1
▁basket 1
▁€ 1
▁rip 1
▁74 1
▁metropolitan 1
▁transform 1
tech 1
▁torture 1
▁instantly 1
▁benjamin 1
▁lynch 1
▁cart 1
gue 1
▁automatic 1
▁pitcher 1
▁hood 1
▁mechanism 1
▁calgary 1
▁noble 1
▁proceedings 1
-11 1
dar 1
▁78 1
▁cheaper 1
▁delta 1
▁mere 1
pre 1
tri 1
▁settings 1
▁militants 1
▁collapsed 1
▁orchestra 1
▁tele 1
▁laundry 1
▁ 1
▁briefing 1
mu 1
▁gardens 1
▁lasted 1
▁dealt 1
lam 1
▁barbara 1
▁teens 1
▁escaped 1
▁launching 1
▁fastest 1
▁karen 1
▁imports 1
▁stroke 1
▁booth 1
▁villa 1
▁integration 1
▁marry 1
ain 1
▁id 1
▁sacrifice 1
▁partially 1
▁wishes 1
▁peninsula 1
▁sentiment 1
▁directions 1
▁hug 1
▁samuel 1
▁gra 1
▁marcus 1
▁trauma 1
▁tourist 1
▁wrap 1
▁pete 1
▁contributing 1
▁bullet 1
ima 1
▁wrist 1
▁closure 1
▁economics 1
▁swedish 1
▁calif 1
▁outbreak 1
▁chips 1
▁urge 1
▁1.2 1
cus 1
01 1
▁laptop 1
▁lieutenant 1
▁placing 1
▁pursuit 1
▁ros 1
▁genuine 1
27 1
▁deemed 1
▁seal 1
eh 1
▁creature 1
▁viewing 1
▁dem 1
▁financing 1
gh 1
▁bon 1
▁metres 1
▁glen 1
▁brazilian 1
ato 1
km 1
▁examine 1
▁photographs 1
▁engaging 1
▁sparked 1
▁15- 1
▁websites 1
▁1982 1
▁tobacco 1
list 1
rn 1
pl 1
party 1
▁dy 1
▁luckily 1
▁afghan 1
▁ally 1
▁requiring 1
▁approaching 1
range 1
▁ur 1
▁withdrawal 1
▁accepting 1
jan 1
▁logic 1
▁awkward 1
▁climbing 1
▁qualify 1
▁trademark 1
▁lung 1
▁gently 1
▁thrilled 1
▁tent 1
▁parked 1
▁benchmark 1
ene 1
ei 1
book 1
▁transmission 1
▁reads 1
▁relax 1
▁mit 1
▁questioning 1
▁sequence 1
▁accomplished 1
▁devastating 1
mile 1
▁dishes 1
▁shaking 1
▁admission 1
▁abilities 1
▁signals 1
▁robbery 1
? 1
▁kay 1
▁masters 1
cur 1
▁divide 1
ido 1
▁indians 1
▁dash 1
▁demonstrate 1
▁transparency 1
▁victor 1
▁hybrid 1
ef 1
▁shifted 1
▁1983 1
▁rico 1
▁md 1
▁wwe 1
▁glory 1
▁linebacker 1
mus 1
▁tenure 1
▁breed 1
▁fifteen 1
▁reflected 1
founder 1
▁rad 1
▁£ 1
▁carlos 1
▁hack 1
36 1
ching 1
▁motivation 1
▁18- 1
▁chronic 1
▁suspicious 1
▁lone 1
▁bulk 1
▁motivated 1
yer 1
mat 1
▁comp 1
▁seeks 1
▁pence 1
▁brutal 1
-0 1
▁24- 1
▁jeans 1
bb 1
del 1
▁respective 1
▁0.5 1
▁ep 1
▁depend 1
▁duck 1
▁invitation 1
mal 1
▁hor 1
bury 1
▁dev 1
▁bachelor 1
▁railroad 1
ches 1
page 1
▁interact 1
▁resist 1
▁catching 1
▁ethics 1
▁folk 1
▁dublin 1
▁approaches 1
▁makeup 1
▁marie 1
hen 1
bin 1
▁underlying 1
▁sophomore 1
▁upside 1
▁kavanaugh 1
▁stepping 1
this 1
▁productive 1
▁heels 1
▁underway 1
▁taiwan 1
ological 1
▁bla 1
▁furthermore 1
new 1
▁theresa 1
▁historically 1
ique 1
21 1
▁alien 1
▁à 1
▁nancy 1
ore 1
west 1
▁compliance 1
▁musk 1
▁flesh 1
77 1
▁blanket 1
▁vladimir 1
▁bend 1
▁chiefs 1
▁geo 1
▁excess 1
▁discipline 1
▁thailand 1
▁strain 1
▁reed 1
▁comics 1
hard 1
▁formally 1
wide 1
▁drone 1
32 1
▁rig 1
▁murdered 1
▁spider 1
▁shine 1
▁hated 1
▁usage 1
▁tropical 1
▁locker 1
▁lar 1
▁discount 1
▁considerable 1
▁brussels 1
▁boxing 1
▁iv 1
45 1
▁exploring 1
▁mentally 1
▁yoga 1
▁creatures 1
▁penalties 1
▁buses 1
sta 1
▁chancellor 1
▁mono 1
▁pale 1
▁2-0 1
▁raid 1
pu 1
▁boards 1
▁boring 1
▁sprint 1
▁bottles 1
▁kenya 1
bound 1
55 1
▁stra 1
▁acquire 1
▁fri 1
▁retain 1
▁translation 1
▁printed 1
ob 1
▁gaze 1
pan 1
▁soup 1
▁toxic 1
sex 1
▁disc 1
▁mouse 1
▁donation 1
▁harrison 1
▁intelligent 1
▁indication 1
▁keyboard 1
▁laying 1
ade 1
▁shu 1
▁distinct 1
rated 1
▁complain 1
▁adjust 1
▁indicates 1
▁× 1
▁announcing 1
▁goodbye 1
▁photography 1
▁tables 1
ew 1
▁butler 1
▁copper 1
row 1
profit 1
▁spark 1
▁bradley 1
▁openly 1
▁satisfied 1
▁ios 1
▁cotton 1
▁flynn 1
▁kal 1
▁laboratory 1
▁abu 1
▁reflection 1
hill 1
▁zimbabwe 1
▁epa 1
▁alice 1
▁tube 1
▁powder 1
▁heights 1
▁verdict 1
▁inspector 1
▁humor 1
▁salad 1
▁slot 1
type 1
ê 1
▁corporations 1
east 1
▁credits 1
▁collecting 1
▁agreements 1
▁tre 1
▁addresses 1
▁neuro 1
▁contrary 1
▁dal 1
▁interpretation 1
▁leaned 1
▁exhibit 1
hy 1
▁rec 1
▁sy 1
▁tactics 1
▁diabetes 1
▁milan 1
37 1
▁nga 1
cia 1
▁psychological 1
▁gentle 1
▁occurs 1
▁assess 1
stein 1
▁instruments 1
▁citizenship 1
sel 1
▁blank 1
▁tier 1
▁spencer 1
= 1
▁reserves 1
â 1
part 1
▁hotels 1
▁jong 1
▁dow 1
▁0.3 1
▁conversion 1
▁releasing 1
▁breathe 1
▁harper 1
▁existed 1
▁modified 1
▁breach 1
▁municipality 1
▁burns 1
zu 1
▁82 1
▁kam 1
ua 1
▁seeds 1
▁karl 1
tur 1
▁interaction 1
▁pri 1
▁cowboys 1
▁continent 1
▁accent 1
▁sponsored 1
▁richmond 1
▁sigh 1
▁cancelled 1
▁influenced 1
▁mah 1
▁kat 1
▁pipe 1
▁impose 1
▁1968 1
▁herald 1
ther 1
▁twist 1
▁mob 1
▁katie 1
▁emotion 1
▁é 1
▁temporarily 1
▁advisor 1
▁nazi 1
▁qualifying 1
▁superintendent 1
▁bloody 1
▁tur 1
▁mod 1
▁lowered 1
▁dock 1
▁arrangements 1
▁suv 1
▁halt 1
▁bobby 1
▁delays 1
ep 1
▁dodgers 1
ean 1
▁counting 1
▁gorgeous 1
tte 1
▁rental 1
▁fortunately 1
▁bitter 1
pen 1
▁1930 1
▁buzz 1
▁fancy 1
▁runners 1
▁imagination 1
▁touching 1
▁pump 1
▁trafficking 1
▁occasional 1
▁arranged 1
▁5- 1
▁shoe 1
▁dennis 1
▁hiv 1
▁expertise 1
▁lakers 1
▁leak 1
▁bud 1
▁singles 1
gg 1
▁1/2 1
▁tribe 1
▁lan 1
▁villages 1
▁în 1
nu 1
▁wished 1
▁composition 1
▁developments 1
▁assuming 1
▁ac 1
maker 1
▁combine 1
▁thankfully 1
[ 1
▁lamb 1
▁1981 1
▁clouds 1
▁lyrics 1
▁lobby 1
▁nigerian 1
▁deciding 1
hole 1
▁traditionally 1
oni 1
ified 1
▁barrier 1
▁fifa 1
▁bernie 1
▁guaranteed 1
▁elder 1
▁kent 1
▁sandy 1
▁dive 1
▁stole 1
▁unfair 1
▁perceived 1
▁cafe 1
▁rap 1
të 1
▁disappointing 1
▁1-0 1
▁gaining 1
▁peers 1
▁crap 1
▁1972 1
▁logan 1
▁console 1
▁errors 1
▁shooter 1
rian 1
▁bor 1
▁kor 1
▁genre 1
▁equipped 1
▁matching 1
▁farms 1
▁camps 1
▁obamacare 1
▁musicians 1
▁rumors 1
▁emperor 1
▁exclusively 1
▁grandma 1
▁broadway 1
▁grants 1
▁gre 1
▁brush 1
▁priorities 1
▁1976 1
▁founding 1
▁blocking 1
▁birmingham 1
▁egyptian 1
▁executed 1
▁shin 1
▁workforce 1
▁%) 1
▁doubled 1
▁tommy 1
▁rocky 1
▁alt 1
▁grief 1
▁minimal 1
▁boats 1
▁cargo 1
▁yemen 1
▁focuses 1
▁inch 1
▁mild 1
▁accounting 1
▁gil 1
mor 1
▁lined 1
▁underneath 1
▁swept 1
▁boo 1
▁patience 1
ii 1
▁acknowledge 1
▁trio 1
ben 1
▁6- 1
▁canal 1
▁ter 1
49 1
▁showcase 1
▁snapped 1
▁couples 1
▁diesel 1
▁accomplish 1
▁shorter 1
▁3,000 1
▁1967 1
▁bout 1
▁unveiled 1
▁demo 1
▁recession 1
▁organisations 1
ova 1
▁cro 1
var 1
▁casino 1
pc 1
▁mothers 1
▁donate 1
▁raj 1
than 1
▁oxygen 1
▁costa 1
century 1
▁ace 1
▁wheels 1
▁segments 1
▁magical 1
▁devil 1
▁landmark 1
▁fever 1
member 1
▁invite 1
▁hr 1
▁84 1
▁drought 1
▁walter 1
▁regarded 1
▁ft 1
▁walmart 1
▁belgium 1
▁revolutionary 1
▁commonwealth 1
▁laughter 1
▁exhausted 1
▁acceptable 1
23 1
▁liberals 1
▁fires 1
▁stored 1
▁loyal 1
▁breeze 1
▁meantime 1
▁vessel 1
friendly 1
▁anchor 1
▁optimistic 1
▁shocking 1
aya 1
yl 1
▁spectacular 1
▁viral 1
cut 1
▁nurses 1
▁resolved 1
▁180 1
▁albums 1
▁sheep 1
rah 1
▁mandatory 1
▁norway 1
▁poetry 1
▁graphic 1
▁ev 1
▁occupation 1
è 1
▁1978 1
▁wade 1
▁nar 1
ila 1
ste 1
▁gan 1
▁911 1
▁dvd 1
▁cho 1
oo 1
▁bel 1
▁lucas 1
▁rogers 1
▁cardinals 1
▁orbit 1
▁caring 1
▁broadcasting 1
▁loading 1
▁blockchain 1
▁athlete 1
▁torn 1
kh 1
sburg 1
28 1
▁floating 1
▁cattle 1
▁1975 1
▁bases 1
▁pod 1
▁influential 1
▁tam 1
▁marketbeat 1
▁mature 1
gra 1
▁ramp 1
usa 1
▁dramatically 1
▁bias 1
▁manufacturer 1
▁musician 1
▁repeal 1
▁stark 1
▁qatar 1
22 1
▁cops 1
▁taxpayers 1
▁trusted 1
▁ashley 1
▁lawn 1
▁privilege 1
▁1973 1
▁ukrainian 1
tta 1
▁explosive 1
▁kilometers 1
▁locally 1
▁offset 1
▁unions 1
▁kha 1
og 1
▁gabriel 1
▁provisions 1
▁guilt 1
▁chu 1
▁competed 1
▁completing 1
▁revealing 1
▁romney 1
▁succeeded 1
onic 1
▁organised 1
shot 1
▁btc 1
▁electronics 1
▁deposit 1
▁echo 1
osa 1
ës 1
▁0.2 1
▁1940 1
ert 1
▁boundaries 1
▁advertisement 1
ston 1
▁posed 1
▁88 1
▁dumb 1
▁cancel 1
▁wherever 1
▁substitute 1
▁pond 1
tha 1
▁references 1
met 1
е 1
▁distant 1
▁medicaid 1
▁carol 1
▁responses 1
▁siblings 1
▁pause 1
▁compound 1
▁gig 1
▁sunshine 1
▁indianapolis 1
▁nan 1
▁blade 1
mc 1
▁organ 1
▁acquiring 1
▁aired 1
▁chill 1
▁zi 1
▁lgbt 1
▁rage 1
▁homicide 1
▁?) 1
▁edwards 1
▁bru 1
▁leverage 1
▁imperial 1
▁mills 1
▁publisher 1
▁margins 1
▁yankees 1
income 1
▁rotation 1
▁inspire 1
▁offseason 1
▁virgin 1
▁treating 1
▁cousins 1
▁prof 1
▁blew 1
▁legendary 1
▁pentagon 1
▁brett 1
cent 1
▁governance 1
▁hd 1
▁trace 1
▁renewed 1
py 1
▁elaborate 1
▁coup 1
nk 1
▁merger 1
hal 1
▁mus 1
.99 1
▁chairs 1
▁makers 1
▁od 1
▁rode 1
▁cookies 1
▁mechanical 1
▁margaret 1
bro 1
▁referee 1
▁finale 1
▁sho 1
▁calculated 1
fish 1
▁bryan 1
▁plug 1
▁newspapers 1
▁imagined 1
▁grim 1
▁restored 1
▁blessing 1
▁perception 1
▁opposing 1
▁costume 1
ante 1
▁50,000 1
▁consultant 1
▁civic 1
▁weighed 1
▁disagree 1
▁quarters 1
elect 1
▁supportive 1
▁mentor 1
person 1
▁tragic 1
▁comeback 1
mel 1
▁traders 1
39 1
▁booked 1
▁fra 1
▁felony 1
▁polling 1
▁infant 1
▁dependent 1
▁anthem 1
64 1
mark 1
▁implications 1
sey 1
▁soap 1
▁refers 1
▁missiles 1
▁relaxed 1
▁availability 1
place 1
▁1974 1
▁creator 1
▁upgraded 1
iest 1
▁safer 1
▁certificate 1
oli 1
▁bubble 1
▁determination 1
▁81 1
▁amateur 1
▁wheat 1
▁linda 1
▁container 1
▁arrangement 1
far 1
▁interference 1
speed 1
▁phenomenon 1
▁79 1
▁evaluation 1
▁uc 1
▁generous 1
▁immigrant 1
▁employer 1
▁lp 1
▁associates 1
▁whoever 1
▁bennett 1
▁dairy 1
pound 1
▁panthers 1
lic 1
two 1
▁manual 1
▁tub 1
▁mysterious 1
tive 1
▁missions 1
▁bash 1
▁spotlight 1
▁outcomes 1
▁rhetoric 1
▁diagnosis 1
mate 1
▁urging 1
▁correctly 1
lis 1
ned 1
▁skirt 1
▁filming 1
▁rhythm 1
▁grin 1
dos 1
▁protocol 1
▁700 1
▁concise 1
▁peer 1
▁vegetables 1
▁immune 1
▁eleven 1
-17 1
tr 1
▁shade 1
fire 1
▁endless 1
▁garcia 1
▁1969 1
-15 1
▁fiber 1
▁fluid 1
▁drafted 1
tis 1
▁frequency 1
▁jefferson 1
profile 1
▁reflects 1
dra 1
▁restricted 1
▁difficulties 1
▁drops 1
od 1
▁scholarship 1
▁firmly 1
▁desperately 1
▁jen 1
▁chapel 1
▁packages 1
▁wallet 1
▁workshop 1
▁deployment 1
▁wounds 1
▁purchases 1
▁vent 1
▁accommodate 1
▁1977 1
▁separation 1
26 1
▁arrests 1
▁classical 1
▁leon 1
▁stanford 1
lot 1
▁proceeds 1
aba 1
▁nintendo 1
▁passionate 1
▁dump 1
▁lanes 1
bie 1
▁connecting 1
▁powered 1
▁adapt 1
▁regiment 1
▁phillips 1
▁alternate 1
▁oversight 1
▁boeing 1
▁tissue 1
▁pressing 1
▁suggestions 1
ente 1
shirt 1
▁billboard 1
▁physics 1
▁curry 1
enberg 1
▁canyon 1
▁pretend 1
▁kumar 1
▁rubber 1
uch 1
▁taliban 1
▁concentration 1
▁http 1
pper 1
quarter 1
▁puck 1
:15 1
▁simultaneously 1
▁clerk 1
▁feared 1
▁lets 1
▁lang 1
▁conducting 1
ili 1
▁disappointment 1
een 1
▁detect 1
some 1
▁slave 1
▁stones 1
sion 1
▁glimpse 1
▁doc 1
ui 1
▁1.3 1
▁joshua 1
boy 1
-16 1
▁eddie 1
▁chemicals 1
▁ea 1
▁cleaned 1
▁..... 1
▁dragged 1
▁deserves 1
▁propaganda 1
▁angela 1
▁exchanges 1
▁lid 1
▁acc 1
▁triggered 1
▁julie 1
▁suspicion 1
▁justify 1
▁installation 1
▁functional 1
▁blaze 1
▁avoided 1
▁stakes 1
▁rolls 1
▁harvest 1
▁kirk 1
▁prop 1
▁pronounced 1
▁din 1
▁cuba 1
▁inmates 1
▁miracle 1
▁libya 1
▁kicking 1
▁ambitious 1
▁bangladesh 1
ify 1
▁slim 1
▁governing 1
▁scare 1
▁hol 1
▁inappropriate 1
ami 1
▁retire 1
school 1
:45 1
▁serial 1
link 1
▁gill 1
ical 1
▁casual 1
▁indicating 1
▁20,000 1
▁spreading 1
▁belly 1
▁2- 1
▁laser 1
▁critic 1
▁violated 1
▁treasure 1
▁lens 1
▁retreat 1
▁regulators 1
▁pearl 1
▁economist 1
▁cure 1
▁proceed 1
05 1
▁alter 1
▁bulls 1
▁closet 1
▁worries 1
▁scrutiny 1
▁switched 1
▁reid 1
rt 1
▁worthy 1
▁fights 1
▁sacramento 1
▁realised 1
▁rbi 1
▁pledged 1
▁bloomberg 1
▁forty 1
▁bent 1
▁instrument 1
▁advisors 1
▁patent 1
▁mario 1
▁gospel 1
▁rapper 1
▁advocacy 1
▁wool 1
▁prevented 1
▁stealing 1
▁freak 1
▁grain 1
▁knights 1
65 1
▁courses 1
▁xbox 1
▁rescued 1
▁leap 1
▁25- 1
▁literary 1
▁palestinians 1
▁valuation 1
president 1
▁battles 1
▁rein 1
▁planes 1
▁preventing 1
▁ry 1
▁successor 1
▁firearms 1
▁audiences 1
▁pitched 1
▁nonetheless 1
uc 1
▁shouted 1
▁dare 1
▁dh 1
▁rope 1
▁garbage 1
▁snake 1
▁raises 1
▁hindu 1
▁searched 1
▁spirits 1
▁educated 1
▁autonomous 1
▁trek 1
▁slammed 1
▁warehouse 1
▁heal 1
handed 1
▁countless 1
▁pakistani 1
▁mommy 1
▁1971 1
▁meghan 1
▁86 1
▁delighted 1
▁sued 1
▁1920 1
nia 1
▁examined 1
▁goalkeeper 1
ello 1
▁farming 1
▁cur 1
▁hunger 1
nis 1
▁consciousness 1
aire 1
▁eli 1
▁101 1
▁respected 1
▁sponsor 1
nic 1
▁praying 1
▁suitable 1
▁disappear 1
▁glance 1
▁1000 1
▁accountability 1
▁acceptance 1
▁honored 1
▁upstairs 1
general 1
pping 1
▁billionaire 1
▁researcher 1
team 1
▁3.5 1
▁helen 1
▁sequel 1
▁pickup 1
▁cult 1
▁incumbent 1
▁strongest 1
42 1
▁macron 1
▁technically 1
▁zo 1
aa 1
▁und 1
▁arrives 1
▁wr 1
▁spray 1
▁solely 1
ero 1
▁animation 1
▁mohammed 1
▁nerve 1
▁technological 1
bridge 1
dia 1
ening 1
▁barriers 1
▁decreased 1
▁suggestion 1
▁testified 1
▁simpson 1
ral 1
ole 1
▁14- 1
▁subtle 1
hn 1
▁hometown 1
▁consulting 1
▁styles 1
ico 1
▁silicon 1
▁unfortunate 1
▁jared 1
br 1
▁boosted 1
eau 1
▁,'" 1
48 1
▁pig 1
▁judiciary 1
▁devoted 1
face 1
▁sd 1
▁16- 1
five 1
▁revised 1
▁kissed 1
gun 1
▁productivity 1
▁delegation 1
-13 1
▁colin 1
▁commentary 1
▁stiff 1
▁artistic 1
▁enhanced 1
▁cubs 1
▁canadians 1
anda 1
▁witch 1
ification 1
▁tee 1
66 1
▁chemistry 1
▁rings 1
▁secrets 1
▁abused 1
▁87 1
▁earthquake 1
▁brooks 1
qua 1
▁suite 1
▁luis 1
▁uni 1
▁populations 1
▁frustrating 1
▁accuracy 1
▁departments 1
-14 1
▁bacteria 1
▁publish 1
29 1
ito 1
▁83 1
eb 1
▁flavor 1
▁nightmare 1
▁0.4 1
▁partial 1
lay 1
▁montana 1
▁curve 1
▁anxious 1
▁eliminated 1
fin 1
▁decides 1
▁nj 1
▁lauren 1
▁vin 1
▁casting 1
▁accord 1
▁syndrome 1
▁dim 1
sville 1
▁habits 1
▁hallway 1
▁produces 1
san 1
▁condemned 1
▁criteria 1
action 1
▁hudson 1
eo 1
▁scream 1
▁kur 1
▁releases 1
▁structural 1
▁oppose 1
▁insiders 1
▁licence 1
▁charm 1
lb 1
▁pursuing 1
▁pee 1
▁interstate 1
▁fer 1
▁pledge 1
▁hampshire 1
▁freeze 1
▁julian 1
▁withdraw 1
▁ought 1
▁fundraising 1
▁attributed 1
▁apologize 1
ava 1
44 1
▁preview 1
▁bombing 1
▁hydro 1
▁joel 1
▁opted 1
▁argues 1
▁hardest 1
cast 1
▁clan 1
nell 1
▁bearing 1
▁transparent 1
▁believing 1
▁licensed 1
▁marking 1
▁significance 1
▁mut 1
nn 1
▁scratch 1
nc 1
▁fond 1
stra 1
▁vowed 1
▁comedian 1
▁reaches 1
bus 1
▁realistic 1
▁happily 1
▁affects 1
▁matchup 1
▁applying 1
▁halfway 1
▁thanked 1
▁matched 1
▁crowded 1
▁caution 1
▁teammate 1
date 1
▁kris 1
screen 1
olo 1
▁rt 1
▁inspection 1
▁zu 1
lyn 1
▁timeline 1
▁dressing 1
▁110 1
▁sacred 1
▁cox 1
▁jokes 1
▁assaulted 1
▁memphis 1
▁inevitable 1
▁yelled 1
▁washed 1
▁interactive 1
▁bizarre 1
ered 1
▁broncos 1
▁blonde 1
arian 1
▁hint 1
▁92 1
▁inclusion 1
och 1
▁listing 1
▁raf 1
▁noah 1
▁muscles 1
▁sanchez 1
▁outlet 1
▁caribbean 1
▁jesse 1
▁mitch 1
▁practically 1
chan 1
▁authorized 1
▁baptist 1
▁transported 1
▁sab 1
watch 1
▁vincent 1
▁dubbed 1
▁setup 1
▁prescription 1
▁cliff 1
▁sweep 1
▁nasty 1
▁scam 1
▁travis 1
▁victories 1
▁_ 1
▁altogether 1
▁1.1 1
▁flows 1
▁elbow 1
▁cloth 1
▁edmonton 1
press 1
▁rub 1
post 1
▁recovering 1
▁olive 1
▁mercy 1
▁trainer 1
▁nebraska 1
▁vessels 1
dc 1
▁lou 1
▁// 1
▁tro 1
▁businessman 1
uf 1
▁mice 1
31 1
▁widow 1
▁evident 1
▁corrupt 1
▁purse 1
▁aftermath 1
▁teenagers 1
▁mau 1
▁shaw 1
▁ghana 1
▁displays 1
▁anytime 1
▁retailer 1
▁bankruptcy 1
ld 1
▁globally 1
▁"... 1
▁porch 1
▁sci 1
▁urgent 1
▁eco 1
file 1
▁filmed 1
▁dubai 1
with 1
▁leonard 1
▁leaked 1
eur 1
uff 1
▁storms 1
▁£2 1
▁colleague 1
▁lengthy 1
▁protective 1
▁dylan 1
▁chad 1
▁defendant 1
▁fog 1
▁precisely 1
▁slid 1
ien 1
ious 1
▁offshore 1
▁ipad 1
▁carr 1
▁tel 1
! 1
▁cheek 1
▁punjab 1
▁comply 1
▁glenn 1
▁experimental 1
▁clearing 1
▁identification 1
aid 1
▁grove 1
▁troy 1
▁vary 1
aka 1
white 1
▁ul 1
▁demonstration 1
▁detectives 1
▁workout 1
▁derby 1
▁hughes 1
▁leo 1
▁disturbing 1
46 1
▁balanced 1
fc 1
cl 1
▁profession 1
nar 1
▁intensity 1
▁carson 1
▁td 1
▁debris 1
▁sheets 1
▁motorcycle 1
▁volumes 1
four 1
▁brigade 1
▁triumph 1
95 1
▁mir 1
▁cope 1
▁incorporated 1
▁uh 1
▁evan 1
▁affecting 1
ł 1
▁void 1
▁mosque 1
▁dude 1
▁helm 1
▁drum 1
▁derek 1
▁blend 1
▁radiation 1
night 1
▁petroleum 1
away 1
▁rational 1
▁identical 1
88 1
▁equities 1
▁undermine 1
▁mcconnell 1
▁pla 1
▁midst 1
▁donors 1
▁rockets 1
▁heck 1
▁edinburgh 1
▁penny 1
▁rag 1
▁extract 1
▁scout 1
▁circles 1
▁waist 1
▁ker 1
get 1
home 1
▁frankly 1
86 1
▁griffin 1
▁sticking 1
▁earliest 1
▁averaged 1
▁realm 1
▁counted 1
▁bailey 1
▁stretched 1
▁offence 1
▁dur 1
3,000 1
▁ruby 1
▁flags 1
▁autumn 1
▁graduation 1
hood 1
▁overhaul 1
▁median 1
85 1
▁dame 1
▁billions 1
▁evolved 1
▁merkel 1
▁edited 1
▁impacts 1
▁amanda 1
▁buddy 1
▁refusing 1
▁fm 1
▁revenge 1
▁zach 1
0.00 1
▁massacre 1
▁rider 1
▁toddler 1
▁claire 1
anna 1
▁porter 1
▁manning 1
▁sandwich 1
▁economies 1
▁certified 1
▁bryant 1
▁gel 1
▁pier 1
▁animated 1
▁api 1
▁adaptation 1
▁mul 1
▁panels 1
▁graphics 1
▁unnecessary 1
▁clo 1
▁thai 1
ture 1
dor 1
][ 1
▁entity 1
▁cathedral 1
▁possibilities 1
▁rodriguez 1
▁appreciated 1
ori 1
▁bloom 1
▁outer 1
▁fda 1
▁norman 1
avi 1
▁responsibilities 1
▁breakdown 1
▁automotive 1
tch 1
▁assisted 1
▁weakness 1
▁riot 1
▁criminals 1
▁companion 1
▁administrator 1
▁architect 1
▁93 1
▁fitting 1
▁sharks 1
ude 1
▁mercedes 1
2,000 1
▁kane 1
▁yorkshire 1
▁1964 1
▁conflicts 1
▁facilitate 1
38 1
▁bridges 1
▁risen 1
▁cycling 1
▁theories 1
▁fits 1
▁adventures 1
▁neighborhoods 1
▁saves 1
▁aboard 1
▁powell 1
ug 1
▁inventory 1
word 1
▁observe 1
▁earl 1
ched 1
awa 1
š 1
▁89 1
▁vendors 1
▁impacted 1
▁tru 1
▁nutrition 1
▁forming 1
▁negotiate 1
▁rh 1
▁pets 1
▁1945 1
▁excessive 1
▁commissioned 1
▁marco 1
▁potter 1
▁clause 1
▁stein 1
▁sneak 1
▁fold 1
ridge 1
▁relating 1
▁continuous 1
▁monument 1
▁whip 1
▁netanyahu 1
▁spill 1
41 1
▁eaten 1
▁colonial 1
▁worrying 1
▁cf 1
▁skull 1
▁portugal 1
▁avoiding 1
33 1
▁lifting 1
▁entities 1
▁sterling 1
tier 1
▁crowds 1
▁appealing 1
▁characteristics 1
▁reagan 1
▁mb 1
67 1
▁sm 1
▁disruption 1
▁sexy 1
▁halftime 1
▁mounted 1
▁batting 1
▁disability 1
ending 1
▁whispered 1
▁chasing 1
▁» 1
▁kai 1
kill 1
▁emerge 1
eng 1
▁assad 1
log 1
story 1
▁organizers 1
▁topped 1
43 1
twitter 1
▁basin 1
bc 1
▁tanks 1
▁flexible 1
▁yields 1
▁prophet 1
▁marketplace 1
▁4- 1
▁conscious 1
▁supporter 1
▁float 1
▁suburban 1
▁pradesh 1
▁introducing 1
▁91 1
▁bride 1
▁controlling 1
▁martinez 1
gie 1
▁rim 1
▁apology 1
▁julia 1
▁liver 1
▁corridor 1
ington 1
nal 1
▁98 1
rum 1
▁‚ 1
▁mont 1
▁dose 1
▁bucks 1
▁permitted 1
▁cy 1
wo 1
▁fal 1
▁compelling 1
▁confrontation 1
▁demon 1
▁resign 1
▁mala 1
▁observation 1
▁ahmed 1
▁aka 1
34 1
▁restoration 1
ration 1
▁backyard 1
▁crops 1
▁nat 1
backed 1
▁uncertain 1
▁rang 1
▁poured 1
▁fascinating 1
▁gotta 1
▁scar 1
▁drain 1
▁shortage 1
6,000 1
▁dolphins 1
▁fierce 1
▁identifying 1
▁exam 1
▁pitt 1
▁instances 1
▁17- 1
▁indictment 1
▁banner 1
aki 1
▁startup 1
▁intend 1
▁superstar 1
▁qu 1
rus 1
▁muhammad 1
▁supposedly 1
▁loyalty 1
▁damaging 1
plus 1
wind 1
▁paintings 1
▁tick 1
▁treatments 1
▁opioid 1
▁og 1
mart 1
▁absent 1
ked 1
▁slower 1
▁dun 1
▁toyota 1
▁br 1
▁males 1
▁gr 1
▁sketch 1
▁medicare 1
▁1.4 1
▁brent 1
▁layers 1
▁oz 1
▁glow 1
▁bleeding 1
▁lance 1
▁adrian 1
▁experiments 1
▁pilots 1
▁beans 1
▁initiated 1
▁lucy 1
xi 1
▁poorly 1
▁newest 1
ack 1
▁commons 1
▁holder 1
▁pulse 1
▁cruel 1
▁96 1
▁1965 1
▁abe 1
▁lopez 1
▁planted 1
▁tribune 1
▁genes 1
chen 1
ple 1
▁armor 1
▁screens 1
▁realise 1
▁rankings 1
▁elliott 1
▁hurting 1
▁poster 1
▁severely 1
▁vermont 1
▁glanced 1
name 1
▁portrait 1
sia 1
▁strictly 1
eri 1
▁threshold 1
▁psychology 1
▁neighbourhood 1
wal 1
tie 1
▁yang 1
▁austria 1
▁mixture 1
▁vest 1
▁grandchildren 1
▁maple 1
▁guided 1
▁spike 1
▁emotionally 1
iva 1
▁warnings 1
▁declare 1
▁alike 1
▁eclipse 1
▁russians 1
▁forgive 1
▁relate 1
▁riley 1
▁homer 1
▁slowed 1
▁preseason 1
▁montgomery 1
oon 1
▁"; 1
▁mack 1
▁anticipate 1
▁establishing 1
▁internationally 1
▁vertical 1
▁caps 1
▁overwhelmed 1
▁fails 1
▁drill 1
▁lebanon 1
▁vaccine 1
▁batteries 1
put 1
▁lamp 1
kel 1
▁dug 1
▁nova 1
▁relieved 1
▁97 1
▁adjacent 1
gal 1
▁recreational 1
▁insights 1
▁3-0 1
mont 1
▁suits 1
▁lottery 1
▁battling 1
▁1.6 1
▁spurs 1
▁accountable 1
▁130 1
▁headline 1
▁separately 1
▁bee 1
▁vikings 1
▁anonymity 1
▁cocaine 1
:" 1
master 1
▁louisville 1
▁zones 1
▁amber 1
▁extending 1
▁ronald 1
▁cp 1
8,000 1
▁shanghai 1
▁sau 1
▁intimate 1
▁ruth 1
size 1
▁accommodation 1
06 1
▁enabled 1
▁sensor 1
dic 1
▁sl 1
▁shark 1
▁weigh 1
▁hannah 1
▁convenience 1
▁tribal 1
▁ou 1
▁stats 1
ering 1
▁adequate 1
ets 1
▁valentine 1
▁denmark 1
oz 1
▁beck 1
cra 1
▁berkeley 1
oma 1
▁aging 1
▁linux 1
ments 1
▁transformed 1
▁sighed 1
▁seoul 1
▁sanctuary 1
▁delight 1
▁shifting 1
▁backpack 1
▁ferguson 1
▁nhs 1
card 1
hra 1
▁reactions 1
▁defenders 1
▁flexibility 1
zar 1
▁bloc 1
▁divine 1
▁thi 1
▁blown 1
▁ripped 1
▁scattered 1
▁grows 1
▁arguably 1
▁heather 1
▁sentencing 1
▁accidentally 1
▁hai 1
▁casey 1
▁composer 1
▁catches 1
▁spite 1
▁sierra 1
▁scholars 1
.- 1
▁interactions 1
▁privately 1
▁stare 1
▁appreciation 1
▁lakes 1
▁1966 1
▁thumb 1
▁colonel 1
▁tackles 1
▁plates 1
▁exceptional 1
68 1
▁pp 1
gel 1
▁sentences 1
▁rides 1
ving 1
▁toast 1
▁reject 1
▁lonely 1
▁celebrities 1
▁porn 1
▁colleges 1
▁grande 1
▁enthusiasm 1
▁cheer 1
▁grill 1
▁supplied 1
▁barrels 1
▁barr 1
▁hostile 1
▁woo 1
▁lodge 1
▁scrap 1
▁accusing 1
▁ 1
una 1
mie 1
▁subway 1
▁injection 1
▁kinda 1
▁laughs 1
▁credited 1
▁whistle 1
▁cooked 1
▁reminds 1
rri 1
▁etf 1
▁liam 1
▁rainbow 1
sse 1
▁printing 1
court 1
▁clever 1
▁kil 1
▁encountered 1
▁habitat 1
▁pyongyang 1
▁catherine 1
▁wu 1
▁bombs 1
▁shaped 1
▁steelers 1
▁nicole 1
tti 1
▁intentions 1
▁sk 1
▁thomson 1
cr 1
án 1
▁derived 1
▁recruiting 1
▁evacuation 1
▁qua 1
▁denial 1
▁remainder 1
▁warn 1
+ 1
▁physician 1
▁permits 1
▁fr 1
87 1
▁lazy 1
▁drilling 1
▁2.0 1
▁vis 1
final 1
▁capability 1
bell 1
▁goldman 1
▁entertaining 1
▁screw 1
how 1
76 1
▁bounce 1
▁borough 1
▁goodness 1
cker 1
▁merit 1
▁mari 1
▁battalion 1
▁fried 1
▁mil 1
nik 1
▁sealed 1
▁tire 1
▁lover 1
▁thoroughly 1
▁nicholas 1
▁shelf 1
▁novels 1
▁belonged 1
▁annoying 1
▁isaac 1
▁desktop 1
▁quad 1
▁pirates 1
▁cognitive 1
▁entries 1
▁applies 1
▁assignment 1
▁elevator 1
▁bart 1
▁alright 1
cer 1
▁overdose 1
▁fortunate 1
▁kom 1
▁indicator 1
▁leaning 1
▁swan 1
▁constituency 1
▁meta 1
ister 1
▁më 1
▁leeds 1
98 1
▁rand 1
▁offerings 1
▁wallace 1
▁surviving 1
▁charts 1
▁yelling 1
▁reddit 1
▁tal 1
▁batman 1
only 1
▁stabbed 1
▁attraction 1
▁pill 1
▁freezing 1
non 1
▁ferry 1
▁needing 1
▁sells 1
app 1
▁postseason 1
▁bernard 1
▁ut 1
▁inbox 1
wick 1
▁idiot 1
▁wy 1
cio 1
▁ct 1
▁drake 1
most 1
▁complaining 1
▁indoor 1
lton 1
▁centres 1
▁trim 1
▁cra 1
▁94 1
▁manafort 1
wise 1
ré 1
▁congregation 1
▁3-1 1
▁corners 1
▁packaging 1
▁washing 1
▁norwegian 1
▁bas 1
▁stakeholders 1
▁clue 1
▁jailed 1
▁prototype 1
▁dale 1
ela 1
▁reviewing 1
▁stern 1
▁coins 1
▁pitching 1
▁sv 1
▁wipe 1
▁nationally 1
▁sel 1
▁bot 1
▁thrust 1
bal 1
▁travelled 1
▁autism 1
▁oven 1
▁czech 1
7,000 1
▁sophisticated 1
▁password 1
▁troubled 1
▁blowing 1
▁mold 1
▁kidney 1
▁insane 1
▁cherry 1
▁19- 1
▁kilometres 1
wed 1
▁nut 1
▁fig 1
▁translated 1
cor 1
▁java 1
▁sensation 1
▁unconscious 1
▁sustain 1
they 1
hol 1
▁unlimited 1
▁documented 1
▁ang 1
ffer 1
▁lighter 1
lf 1
▁fist 1
▁cluster 1
▁greeted 1
▁juvenile 1
gin 1
bach 1
▁bil 1
wall 1
▁hp 1
▁achieving 1
▁.'" 1
▁distinction 1
▁rosa 1
▁boycott 1
▁connor 1
▁creativity 1
▁nuts 1
inger 1
▁essay 1
▁elect 1
▁oral 1
▁sweeping 1
kg 1
▁rd 1
▁lind 1
▁bucket 1
▁historian 1
▁bump 1
ign 1
▁0.6 1
uz 1
▁nail 1
▁warrior 1
▁declining 1
aro 1
▁bust 1
▁kardashian 1
▁situated 1
▁deliberately 1
▁sullivan 1
▁bp 1
▁plaza 1
was 1
▁concepts 1
▁navigate 1
▁cared 1
▁financially 1
▁expose 1
▁apartments 1
▁smartphones 1
▁configuration 1
▁hatred 1
▁weinstein 1
hop 1
▁artwork 1
pac 1
▁rex 1
mbo 1
à 1
▁swear 1
▁orthodox 1
▁belonging 1
ema 1
▁recreation 1
▁mvp 1
▁tossed 1
02 1
▁stamp 1
▁cas 1
coin 1
▁squadron 1
▁flagship 1
▁outperform 1
▁athletics 1
▁ducks 1
▁lending 1
cing 1
pri 1
zen 1
▁enforce 1
▁heroin 1
▁socks 1
▁proportion 1
weight 1
▁ethical 1
▁brisbane 1
▁traditions 1
▁yen 1
imi 1
▁liability 1
▁aide 1
▁elevated 1
▁hull 1
base 1
▁faithful 1
lit 1
▁das 1
▁henderson 1
▁contractor 1
▁tonnes 1
▁om 1
▁greenhouse 1
▁gandhi 1
space 1
▁mer 1
04 1
▁cum 1
▁speeds 1
▁understands 1
▁territories 1
▁grandparents 1
▁ignoring 1
▁strangers 1
▁averaging 1
▁defendants 1
96 1
▁1963 1
▁therapist 1
▁bowling 1
▁dana 1
uma 1
▁obligation 1
▁seniors 1
57 1
▁utilities 1
▁lei 1
▁brit 1
▁cannon 1
▁fare 1
▁delaware 1
ō 1
▁mansion 1
▁desired 1
load 1
▁rot 1
▁pt 1
▁jurisdiction 1
▁divisions 1
▁consumed 1
▁filter 1
▁wolves 1
▁pistol 1
▁22- 1
▁driveway 1
▁buhari 1
une 1
▁organize 1
▁hurts 1
▁boulevard 1
▁ladder 1
▁rebecca 1
▁belongs 1
▁tablet 1
▁memorable 1
rod 1
▁transplant 1
▁peanut 1
▁freely 1
wire 1
▁hitler 1
shire 1
generation 1
▁sudan 1
▁tends 1
▁facial 1
ú 1
07 1
eth 1
▁gp 1
oe 1
▁rebuild 1
nick 1
▁lacking 1
▁tooth 1
▁afterward 1
▁honda 1
▁prohibited 1
tus 1
▁kashmir 1
▁sergeant 1
▁enterprises 1
▁sharply 1
▁meyer 1
▁newcastle 1
ded 1
▁flowing 1
▁poet 1
09 1
▁?! 1
▁infected 1
jet 1
▁economists 1
72 1
4,000 1
lio 1
▁firearm 1
▁ralph 1
▁myanmar 1
league 1
▁dia 1
iti 1
▁21- 1
▁evaluate 1
▁heated 1
▁140 1
▁verse 1
ges 1
▁aluminum 1
03 1
▁gri 1
▁deserved 1
▁sep 1
▁poem 1
▁holland 1
▁pol 1
▁essence 1
▁vacuum 1
▁sizes 1
www 1
89 1
▁hatch 1
▁awhile 1
▁texture 1
▁contacts 1
69 1
▁quilt 1
▁ordinance 1
▁realizing 1
▁chile 1
▁gran 1
▁clarity 1
source 1
▁hernandez 1
▁damages 1
▁gps 1
▁owen 1
▁sunset 1
pel 1
▁beneficial 1
▁raped 1
▁waking 1
▁ports 1
▁pumpkin 1
ska 1
▁stint 1
▁screamed 1
▁spur 1
▁themes 1
▁presumably 1
▁duration 1
▁lasting 1
▁brewing 1
▁martial 1
▁40- 1
▁unacceptable 1
▁proceeded 1
▁silk 1
▁limitations 1
▁sb 1
▁predecessor 1
▁clicking 1
▁viable 1
▁exercises 1
▁robots 1
▁lloyd 1
▁affiliate 1
▁abandon 1
▁chronicle 1
▁negotiating 1
▁lynn 1
▁til 1
1,000 1
▁advances 1
▁probation 1
▁pockets 1
▁portal 1
str 1
▁crush 1
▁draws 1
▁pays 1
▁kills 1
▁gum 1
▁faint 1
▁vegan 1
gui 1
▁nearest 1
▁jungle 1
▁satisfaction 1
▁inequality 1
08 1
▁wang 1
▁suck 1
▁dominate 1
▁seth 1
▁trunk 1
▁orientation 1
▁comparing 1
▁embarrassing 1
▁paradise 1
▁breakthrough 1
▁ot 1
▁cuban 1
▁hilarious 1
roy 1
▁grades 1
ée 1
▁spi 1
sim 1
▁eternal 1
▁threaten 1
▁skilled 1
▁thor 1
ç 1
controlled 1
▁lesser 1
▁chains 1
▁kicks 1
▁kerry 1
▁chan 1
▁stunned 1
gon 1
▁colombia 1
▁smiles 1
▁tense 1
▁scorer 1
▁junk 1
.25 1
▁computing 1
ista 1
▁kurdish 1
ifying 1
mic 1
▁consultation 1
> 1
▁shadows 1
▁bikes 1
▁respondents 1
▁infantry 1
▁embarrassed 1
▁disclose 1
▁beard 1
▁plc 1
▁verify 1
▁andrea 1
▁precise 1
▁retained 1
bat 1
▁passport 1
▁relay 1
▁aisle 1
▁abdul 1
▁helmet 1
▁trails 1
▁lad 1
▁renamed 1
isi 1
▁1962 1
▁flooded 1
▁packers 1
▁carroll 1
▁tales 1
▁hurry 1
fold 1
▁outrage 1
yne 1
▁lounge 1
▁inaugural 1
vers 1
▁contractors 1
emi 1
see 1
▁potatoes 1
▁mos 1
▁expedition 1
▁allied 1
▁density 1
▁expressing 1
▁confronted 1
▁tottenham 1
ations 1
▁idol 1
▁=> 1
▁admits 1
▁ek 1
▁nano 1
▁lemon 1
media 1
power 1
▁është 1
▁browns 1
▁recognised 1
▁canceled 1
▁solidarity 1
▁receives 1
▁crow 1
▁survivor 1
▁watches 1
▁variable 1
▁minneapolis 1
▁allah 1
uring 1
▁runway 1
▁trevor 1
ón 1
▁texts 1
▁papa 1
▁harmful 1
▁lakh 1
▁lily 1
hit 1
▁cooler 1
▁scroll 1
rating 1
▁lanka 1
▁fraction 1
▁shan 1
▁holly 1
▁supervisor 1
ware 1
which 1
▁analytics 1
▁jeffrey 1
ا 1
▁priced 1
▁salmon 1
▁chambers 1
▁350 1
▁ego 1
▁saga 1
▁shane 1
ase 1
▁ret 1
▁choir 1
▁stuart 1
cion 1
▁tours 1
▁sil 1
igan 1
powered 1
▁recruit 1
▁footballer 1
▁gauge 1
▁inauguration 1
▁repairs 1
▁slavery 1
51 1
▁organizing 1
▁bugs 1
▁rai 1
▁provinces 1
▁0.8 1
▁achievements 1
▁shuttle 1
roll 1
▁manages 1
▁neat 1
▁exchanged 1
pped 1
▁servers 1
▁gesture 1
▁palmer 1
▁beds 1
brook 1
pal 1
▁appointments 1
▁burger 1
▁permanently 1
▁blogs 1
▁archive 1
78 1
▁30,000 1
▁magnitude 1
▁rewards 1
▁implementing 1
▁0.7 1
▁sends 1
▁prep 1
▁compiled 1
▁dignity 1
▁norm 1
▁sticks 1
ción 1
▁confront 1
▁flee 1
▁lecture 1
▁hum 1
▁notified 1
▁drones 1
▁falcons 1
▁sheer 1
ille 1
▁electro 1
▁execute 1
▁mccarthy 1
▁correspondent 1
56 1
▁hispanic 1
▁jab 1
▁rust 1
▁av 1
▁gravity 1
▁1.8 1
▁cardinal 1
* 1
rock 1
now 1
▁lau 1
▁newton 1
▁abraham 1
▁duncan 1
▁sap 1
▁quantum 1
▁genius 1
▁stir 1
▁consisted 1
las 1
▁whale 1
▁colony 1
▁cle 1
59 1
▁holmes 1
▁randy 1
▁minus 1
▁favorable 1
▁fireworks 1
nch 1
▁revelation 1
bri 1
▁straw 1
bing 1
▁kr 1
84 1
▁reynolds 1
▁starbucks 1
▁junction 1
char 1
▁marsh 1
▁pork 1
▁accidents 1
▁nicely 1
minded 1
▁mobility 1
▁refund 1
▁fy 1
▁reckless 1
▁barnes 1
▁stuffed 1
▁expectation 1
▁composite 1
▁welsh 1
▁florence 1
▁medals 1
▁popped 1
▁doll 1
▁hbo 1
▁jewelry 1
▁dessert 1
qu 1
▁cri 1
▁360 1
▁sensors 1
read 1
▁construct 1
▁treats 1
kie 1
▁neighbours 1
79 1
▁condo 1
lies 1
71 1
▁liz 1
▁bros 1
▁prompting 1
▁pioneer 1
▁wreck 1
▁throne 1
▁envelope 1
▁beau 1
sur 1
▁mug 1
▁apologized 1
▁crisp 1
▁challenger 1
▁neighboring 1
▁telecom 1
▁ucla 1
▁recognise 1
▁costly 1
▁paused 1
ssa 1
▁convey 1
č 1
▁este 1
▁arctic 1
▁insists 1
▁mls 1
▁cups 1
▁chargers 1
▁mainland 1
▁convincing 1
▁arrow 1
ologist 1
▁designers 1
rey 1
▁shifts 1
▁invisible 1
▁welcoming 1
▁adapted 1
▁legion 1
asi 1
▁convenient 1
▁bacon 1
▁bis 1
▁lawsuits 1
▁glasgow 1
▁compact 1
500 1
▁bored 1
▁mun 1
▁awaiting 1
ā 1
▁booking 1
oy 1
▁hawks 1
▁excellence 1
▁160 1
ao 1
▁regards 1
▁revival 1
▁collar 1
▁contents 1
▁camping 1
▁twisted 1
94 1
▁sussex 1
▁richardson 1
hold 1
▁wiped 1
▁suburb 1
▁preference 1
▁shouting 1
▁concentrate 1
▁suppliers 1
▁kh 1
▁mint 1
▁dynamics 1
▁13- 1
▁hacking 1
▁cad 1
▁thereby 1
▁monte 1
▁offences 1
73 1
▁gambling 1
▁disabilities 1
cost 1
63 1
ash 1
▁nationalist 1
▁gau 1
▁jin 1
▁aiming 1
▁kissing 1
▁py 1
▁hail 1
▁125 1
mmer 1
▁furious 1
▁bits 1
▁bipartisan 1
▁logical 1
▁gibson 1
▁towers 1
▁cb 1
54 1
rp 1
▁terrified 1
▁portuguese 1
▁lied 1
▁entrepreneurs 1
▁packing 1
▁shallow 1
under 1
▁frontier 1
▁clearance 1
▁pharmaceutical 1
▁jewel 1
gas 1
▁nd 1
test 1
▁presenting 1
▁cease 1
▁bog 1
62 1
▁23- 1
▁conclude 1
▁gt 1
▁peterson 1
▁feat 1
▁slated 1
▁usb 1
▁mourinho 1
▁ritual 1
pat 1
▁detected 1
▁bitch 1
▁idaho 1
▁decorated 1
▁sadness 1
▁placement 1
▁sore 1
▁bran 1
wer 1
bur 1
▁fork 1
dh 1
▁biology 1
▁bha 1
▁nuk 1
▁programmes 1
▁possess 1
▁compassion 1
▁swap 1
▁epidemic 1
▁denies 1
▁pills 1
▁fabulous 1
▁queens 1
▁fury 1
▁moss 1
cept 1
▁salaries 1
▁buttons 1
▁ole 1
▁blair 1
▁competitions 1
▁bicycle 1
▁equation 1
ear 1
▁poison 1
▁quinn 1
▁ideology 1
dom 1
▁levi 1
▁fleeing 1
▁az 1
feld 1
▁auburn 1
▁nsa 1
▁willingness 1
▁protections 1
▁11- 1
▁puppy 1
tle 1
▁alley 1
▁downstairs 1
▁brook 1
▁hon 1
dad 1
dal 1
▁scholar 1
▁dies 1
▁sheffield 1
▁rebound 1
▁authentic 1
▁ecosystem 1
oi 1
▁persistent 1
▁wheelchair 1
▁secular 1
▁consume 1
▁comparable 1
▁albeit 1
▁clarke 1
▁bmw 1
▁1948 1
itz 1
▁unhappy 1
▁reflecting 1
▁tolerance 1
city 1
▁automated 1
▁voluntary 1
▁legislators 1
▁dried 1
▁fry 1
▁bothered 1
▁ethan 1
▁ensemble 1
▁analyze 1
▁sponsors 1
▁distribute 1
▁subscribers 1
▁appealed 1
▁skate 1
▁reunion 1
▁specialty 1
61 1
▁epi 1
▁prayed 1
▁mlb 1
▁winnipeg 1
▁sidewalk 1
▁melissa 1
▁myth 1
▁tai 1
check 1
▁rude 1
▁rehabilitation 1
craft 1
▁1- 1
▁devils 1
▁morrison 1
▁harbour 1
▁rack 1
▁corbyn 1
▁embraced 1
▁starred 1
▁keeper 1
cul 1
▁gb 1
▁deceased 1
▁bb 1
piece 1
▁partisan 1
▁rib 1
▁nun 1
▁visitor 1
▁gloves 1
▁humble 1
ox 1
▁digging 1
▁congressman 1
▁algorithm 1
stock 1
▁caucus 1
▁observer 1
▁reluctant 1
▁recipes 1
▁securing 1
▁mines 1
▁stat 1
▁showers 1
▁1944 1
kov 1
▁1961 1
▁incentives 1
ander 1
▁stripped 1
▁scha 1
▁prey 1
▁tightly 1
!" 1
▁oval 1
▁incentive 1
▁generating 1
▁brock 1
▁prisoner 1
▁profound 1
▁scent 1
▁lightly 1
▁presently 1
▁pierre 1
aria 1
▁malcolm 1
▁ellis 1
▁pl 1
▁lyon 1
rb 1
▁advisers 1
▁aesthetic 1
pr 1
▁carriers 1
▁obligations 1
▁strat 1
▁virtue 1
hon 1
▁infamous 1
97 1
▁layout 1
▁killings 1
▁colored 1
▁bab 1
▁curriculum 1
▁gala 1
▁delegates 1
▁savage 1
fall 1
▁4,000 1
$1 1
▁daniels 1
▁females 1
▁consequence 1
▁testament 1
▁shepherd 1
▁handy 1
▁flame 1
ces 1
▁destroying 1
▁logistics 1
▁fundraiser 1
▁assure 1
:00 1
▁namely 1
▁handsome 1
▁abbott 1
▁travels 1
▁stunt 1
▁miserable 1
▁forests 1
▁civilization 1
▁grammy 1
▁spiral 1
▁instruction 1
▁grasp 1
▁finn 1
▁unaware 1
▁graph 1
▁batch 1
quality 1
▁liquor 1
▁bore 1
shaw 1
▁ammunition 1
▁borrow 1
▁cigarette 1
▁paperwork 1
58 1
▁forensic 1
▁3-2 1
▁neu 1
▁hubby 1
▁distinguished 1
ici 1
being 1
▁quo 1
▁lagos 1
pet 1
▁timber 1
door 1
▁sgt 1
▁publications 1
iel 1
▁telegraph 1
▁sid 1
▁huawei 1
▁parole 1
▁pinch 1
▁50- 1
▁nsw 1
▁tehran 1
▁steering 1
▁nod 1
▁semester 1
uni 1
▁profitable 1
▁diana 1
▁statute 1
▁knocking 1
▁backwards 1
▁portrayed 1
▁canvas 1
duc 1
▁resting 1
▁hamas 1
▁contributor 1
▁slowing 1
▁litigation 1
▁bundle 1
ando 1
▁gunman 1
▁punk 1
makers 1
bol 1
▁alternatives 1
▁bolt 1
▁isolation 1
té 1
▁7:30 1
▁snack 1
▁inclusive 1
nz 1
▁titans 1
pad 1
σ 1
▁outlined 1
▁demonstrations 1
▁proving 1
▁lb 1
▁libraries 1
▁devastated 1
zan 1
▁interrupted 1
▁careers 1
▁puzzle 1
jar 1
▁displaced 1
▁surrender 1
▁1,500 1
▁wan 1
▁seahawks 1
▁pixel 1
ute 1
▁gin 1
▁regulate 1
▁playstation 1
▁vintage 1
nor 1
▁windsor 1
▁projections 1
93 1
83 1
▁islamist 1
▁bristol 1
82 1
▁200,000 1
▁dome 1
▁proposition 1
▁milestone 1
▁starters 1
service 1
human 1
▁blu 1
▁investigative 1
▁christie 1
ε 1
▁nephew 1
▁replay 1
meter 1
▁controller 1
▁agrees 1
▁labels 1
▁mineral 1
▁fargo 1
▁celebrations 1
▁lesbian 1
los 1
▁backlash 1
▁ruin 1
▁ip 1
▁seasonal 1
▁counterparts 1
▁delicate 1
▁megan 1
▁magazines 1
ock 1
▁joan 1
shore 1
▁continental 1
▁stays 1
▁subsidiary 1
▁latino 1
▁collections 1
hin 1
hara 1
▁ellen 1
wn 1
▁guild 1
▁zip 1
▁aides 1
▁depressed 1
▁strategist 1
▁reiterated 1
▁thrive 1
▁enabling 1
▁instructed 1
▁detection 1
▁roma 1
▁performers 1
table 1
▁militant 1
▁maritime 1
▁javascript 1
▁holders 1
ae 1
92 1
▁rehab 1
bag 1
▁likewise 1
▁processor 1
▁credible 1
▁nixon 1
ax 1
▁betting 1
74 1
▁bella 1
even 1
▁violating 1
▁floors 1
▁curse 1
had 1
▁feminist 1
▁christine 1
▁endorsement 1
second 1
▁stephanie 1
▁payout 1
▁ravens 1
▁pelosi 1
▁pam 1
shan 1
act 1
▁tribes 1
▁erdogan 1
▁assumption 1
▁peek 1
▁gmt 1
▁punt 1
front 1
▁practicing 1
▁prix 1
▁belgian 1
sti 1
▁beth 1
▁disorders 1
asa 1
-21 1
▁dire 1
▁pupils 1
▁bald 1
▁answering 1
▁committing 1
pass 1
▁differ 1
▁hm 1
▁mcg 1
▁mou 1
▁rabbi 1
▁vatican 1
grade 1
▁wit 1
▁baking 1
ense 1
wear 1
▁endorsed 1
shaped 1
▁imported 1
▁sail 1
▁dup 1
▁rodgers 1
▁supplement 1
▁module 1
▁pitches 1
code 1
▁exploded 1
▁adorable 1
order 1
▁regain 1
▁donor 1
ions 1
▁forecasts 1
▁cookie 1
▁shrugged 1
▁burial 1
▁vacant 1
mente 1
horn 1
els 1
▁exploit 1
▁jacksonville 1
▁surgeon 1
▁kol 1
ifies 1
▁shelves 1
▁erik 1
▁chen 1
▁columnist 1
▁waved 1
▁tougher 1
▁horrific 1
▁undergo 1
yu 1
▁cornerback 1
▁christianity 1
▁dull 1
▁independently 1
▁deportation 1
▁mercury 1
▁prompt 1
▁licensing 1
▁tamil 1
▁haul 1
91 1
▁cement 1
▁mediterranean 1
▁confusing 1
commerce 1
▁attendees 1
▁poses 1
tia 1
▁celtics 1
aga 1
▁1-1 1
▁denying 1
▁aggravated 1
▁inspiring 1
gov 1
▁olivia 1
▁instrumental 1
▁secretly 1
▁soundtrack 1
smith 1
▁heating 1
▁quotes 1
▁shareholder 1
eye 1
bot 1
▁drank 1
▁outright 1
▁shar 1
leg 1
▁qualities 1
ault 1
▁squeeze 1
▁mock 1
▁9/11 1
▁insist 1
▁kir 1
9,000 1
▁lag 1
▁emirates 1
▁casualties 1
▁bargain 1
hander 1
▁yahoo 1
▁accurately 1
▁kara 1
itis 1
berry 1
▁-" 1
▁slaves 1
▁finland 1
▁spine 1
▁crackdown 1
▁cellphone 1
▁incoming 1
▁eventual 1
▁enables 1
▁tires 1
▁navigation 1
▁amazed 1
▁kenny 1
▁overhead 1
▁bos 1
core 1
▁npr 1
▁gur 1
▁accordingly 1
▁boundary 1
ush 1
▁dub 1
brien 1
▁raymond 1
▁criticised 1
▁cautious 1
▁polar 1
▁silva 1
▁genuinely 1
just 1
▁melt 1
oid 1
▁forehead 1
▁painter 1
▁venues 1
▁binding 1
▁freed 1
▁northwestern 1
▁cons 1
▁500,000 1
▁someday 1
▁compliment 1
yi 1
▁distracted 1
▁caller 1
▁ale 1
▁steadily 1
▁schemes 1
▁qa 1
▁attacker 1
▁kg 1
▁limiting 1
▁bullets 1
▁diving 1
▁motors 1
▁ivan 1
▁observations 1
▁qb 1
▁jun 1
zz 1
▁kindness 1
▁jackie 1
▁credibility 1
▁warfare 1
▁cracked 1
▁touring 1
▁spinning 1
▁paths 1
gor 1
▁intensive 1
stop 1
▁owe 1
track 1
▁intends 1
▁considers 1
▁sank 1
▁westminster 1
▁tactical 1
▁dedication 1
▁hungary 1
▁cartoon 1
▁7- 1
▁sack 1
driven 1
▁broker 1
▁tendency 1
▁wasted 1
▁capitalism 1
▁recordings 1
gli 1
cin 1
▁ei 1
▁edges 1
▁8- 1
▁liberation 1
▁zen 1
▁cl 1
▁embedded 1
▁commitments 1
▁vampire 1
dio 1
▁doubles 1
▁flies 1
lly 1
▁gods 1
▁como 1
▁processed 1
chy 1
▁wagon 1
▁honors 1
▁switching 1
▁emmanuel 1
▁distinguish 1
▁bullying 1
.20 1
ied 1
▁cottage 1
▁abstract 1
▁cass 1
lip 1
▁monkey 1
▁subsidies 1
▁finances 1
▁lg 1
▁nickname 1
iki 1
▁corresponding 1
▁stall 1
▁shoppers 1
▁gor 1
▁lebron 1
mir 1
▁doubts 1
▁4.5 1
▁educate 1
▁submission 1
step 1
▁spit 1
chu 1
▁rabbit 1
▁joey 1
▁fest 1
▁şi 1
▁entrepreneur 1
fully 1
▁00 1
isa 1
site 1
aged 1
▁perez 1
▁stevens 1
▁migrant 1
▁distress 1
▁roller 1
▁tribunal 1
▁consisting 1
▁certification 1
▁prosperity 1
▁spun 1
▁instructor 1
81 1
▁lungs 1
uka 1
▁frost 1
ía 1
▁colts 1
▁thirteen 1
▁lib 1
▁bilateral 1
mas 1
▁maj 1
▁winger 1
▁doctrine 1
▁defeating 1
▁dealer 1
▁gasoline 1
▁complement 1
▁locate 1
▁dumped 1
via 1
▁grandson 1
▁statewide 1
▁origins 1
▁sting 1
▁nas 1
▁advancing 1
▁curtis 1
▁bless 1
▁vas 1
▁crushed 1
▁commodity 1
▁shout 1
▁complexity 1
▁eh 1
ography 1
stan 1
▁remembering 1
▁1947 1
▁counterpart 1
▁debuted 1
▁gh 1
▁heavyweight 1
tting 1
47 1
▁jenny 1
▁explicitly 1
▁occupy 1
▁voiced 1
▁societies 1
ego 1
▁sworn 1
▁playground 1
▁ditch 1
▁caroline 1
▁minorities 1
▁sovereign 1
▁panama 1
▁sacks 1
▁shining 1
▁cultures 1
▁accessories 1
▁omar 1
ged 1
funded 1
▁refuge 1
oj 1
▁prestigious 1
▁wh 1
▁altered 1
▁surf 1
▁declaring 1
▁shipped 1
▁grind 1
▁investigator 1
▁surplus 1
▁evacuated 1
▁feast 1
▁2021 1
▁900 1
▁afc 1
▁usc 1
▁đ 1
ν 1
▁intact 1
▁observers 1
▁cooperative 1
▁cleaner 1
▁rcmp 1
▁documentation 1
▁pala 1
▁fruits 1
▁tit 1
▁yan 1
thirds 1
▁disposal 1
▁teaches 1
▁fined 1
▁weaker 1
iff 1
▁destiny 1
matic 1
▁jenkins 1
/2 1
▁yuan 1
▁weighing 1
▁currencies 1
ranked 1
▁applicable 1
▁aids 1
▁jill 1
▁measuring 1
rg 1
▁concussion 1
▁vale 1
▁descent 1
▁tillerson 1
▁accounted 1
▁tb 1
▁cbc 1
▁hackers 1
agh 1
▁gaps 1
▁duterte 1
▁arnold 1
▁broadband 1
▁confession 1
fr 1
▁streams 1
▁pedestrian 1
▁tricks 1
▁gregory 1
▁ana 1
▁recalls 1
▁1.7 1
share 1
gn 1
case 1
▁considerably 1
▁grabbing 1
▁critically 1
▁homework 1
▁happier 1
▁dial 1
▁arise 1
▁retiring 1
▁hearings 1
▁cer 1
▁font 1
▁52- 1
ι 1
▁partnerships 1
▁mound 1
▁smash 1
▁generic 1
° 1
rë 1
▁med 1
▁blogging 1
▁testify 1
▁depot 1
▁taxpayer 1
▁applicants 1
▁staged 1
▁sixteen 1
▁assassination 1
▁buyer 1
▁insert 1
ual 1
▁berry 1
▁guinea 1
100 1
▁shirts 1
▁rogue 1
▁absurd 1
▁councillor 1
▁lovers 1
▁purely 1
▁travelers 1
▁pairs 1
▁slate 1
▁elephant 1
▁ordering 1
▁talents 1
▁gratitude 1
▁disappearance 1
▁mak 1
hart 1
▁footprint 1
▁monsters 1
▁danish 1
▁deploy 1
ult 1
▁kremlin 1
▁confederate 1
▁brokerage 1
▁souls 1
▁pinterest 1
▁bracket 1
▁rb 1
▁tattoo 1
▁nab 1
▁inability 1
▁hurricanes 1
▁magnetic 1
▁offenders 1
ér 1
ike 1
▁calories 1
▁fairy 1
pot 1
zie 1
▁coupled 1
▁sham 1
▁deposits 1
▁ballots 1
gro 1
▁sf 1
▁nate 1
▁munich 1
▁optimism 1
▁scenarios 1
nne 1
▁positioned 1
▁ox 1
sie 1
▁ribbon 1
▁terrain 1
▁skies 1
▁justified 1
▁enrolled 1
▁slice 1
▁misleading 1
good 1
▁conclusions 1
▁kerr 1
▁spoon 1
▁yell 1
▁frederick 1
▁"( 1
▁1959 1
▁sour 1
▁contested 1
▁1942 1
ı 1
▁rash 1
▁massage 1
▁walt 1
▁peru 1
start 1
▁leicester 1
wen 1
▁maduro 1
▁turnout 1
▁curiosity 1
▁sai 1
▁specialized 1
band 1
▁publicity 1
▁gown 1
▁wanna 1
▁shootings 1
▁administrators 1
▁masses 1
pos 1
▁seated 1
▁oath 1
block 1
▁likelihood 1
▁michel 1
▁directing 1
▁favorites 1
▁aggregate 1
▁beaches 1
▁sliding 1
▁statistical 1
▁needle 1
heim 1
bl 1
▁rainfall 1
▁kel 1
▁warmer 1
gram 1
▁fictional 1
▁tricky 1
▁touches 1
▁tuition 1
▁accelerate 1
▁employ 1
▁recycling 1
ically 1
▁notorious 1
▁handing 1
▁futures 1
▁meter 1
▁containers 1
erson 1
▁oc 1
▁lok 1
dell 1
▁sally 1
▁simmons 1
▁punish 1
▁1958 1
▁evolve 1
▁mechanisms 1
▁aerial 1
▁sto 1
verse 1
▁coral 1
▁physicians 1
▁dai 1
▁broadly 1
▁vague 1
gger 1
rit 1
▁1941 1
▁accessed 1
▁cares 1
.10 1
▁passive 1
▁deb 1
▁functioning 1
▁lac 1
best 1
▁dismiss 1
▁wholesale 1
▁lend 1
▁dealers 1
▁1956 1
▁thorough 1
▁cough 1
▁publishers 1
▁concerts 1
▁potato 1
▁0.1 1
▁behave 1
hall 1
▁flown 1
▁parenting 1
aud 1
▁manufactured 1
▁mindset 1
▁fl 1
▁janet 1
▁https 1
edge 1
lands 1
▁psychologist 1
▁fulfill 1
▁pedro 1
▁admiral 1
▁meditation 1
▁objectives 1
▁environments 1
▁artillery 1
▁cryptocurrency 1
▁pardon 1
▁medieval 1
author 1
▁wishing 1
show 1
▁substantially 1
▁pouring 1
▁farther 1
▁joins 1
▁scouts 1
▁neglect 1
), 1
α 1
▁confidential 1
owski 1
▁bean 1
▁servants 1
▁intentionally 1
lian 1
▁blogger 1
▁suburbs 1
▁hut 1
gging 1
eta 1
▁appetite 1
pf 1
▁genus 1
▁freight 1
ario 1
tine 1
▁wikileaks 1
▁newborn 1
▁nike 1
▁flock 1
▁0.9 1
▁holocaust 1
▁salman 1
▁weekends 1
▁armstrong 1
▁clarify 1
▁slap 1
▁atop 1
▁handgun 1
tom 1
▁dental 1
zel 1
▁raced 1
▁deleted 1
▁complications 1
▁illustrated 1
▁graduating 1
▁abusive 1
jen 1
▁colours 1
▁settlements 1
may 1
▁verizon 1
▁priests 1
▁routinely 1
▁utterly 1
▁overly 1
▁searches 1
▁withdrew 1
▁midterm 1
there 1
▁brewery 1
ş 1
▁hiking 1
▁hooked 1
▁airports 1
hat 1
▁graduates 1
▁clashes 1
▁pompeo 1
▁premises 1
▁prizes 1
ivo 1
▁bypass 1
▁renowned 1
pha 1
▁connectivity 1
▁token 1
▁fatigue 1
▁mich 1
▁fixing 1
▁maintains 1
▁storyline 1
▁hugh 1
▁editors 1
▁pillow 1
▁transcript 1
▁dangers 1
▁failures 1
▁surgical 1
▁bol 1
▁lethal 1
▁disk 1
▁terrifying 1
▁unite 1
▁matthews 1
▁deliberate 1
▁invented 1
▁fountain 1
▁header 1
▁mia 1
▁mormon 1
▁luc 1
▁coleman 1
▁paired 1
▁unified 1
▁celebrates 1
illo 1
▁beam 1
wu 1
mobile 1
▁annie 1
▁verbal 1
ann 1
▁badge 1
▁nyc 1
fla 1
▁sis 1
▁recipient 1
rio 1
▁disputes 1
▁kidnapping 1
▁>> 1
▁assembled 1
▁nepal 1
▁rejection 1
iri 1
▁allocation 1
▁assumptions 1
▁directive 1
.75 1
▁ndp 1
▁glorious 1
▁borrowing 1
said 1
▁1957 1
▁lil 1
▁baldwin 1
▁siege 1
▁soda 1
ular 1
digit 1
▁umbrella 1
▁brass 1
▁obstacles 1
▁towel 1
▁cheating 1
▁memoir 1
yr 1
▁sco 1
▁nam 1
▁lobbying 1
▁wilder 1
▁illusion 1
▁sebastian 1
▁knot 1
ites 1
▁judging 1
▁messi 1
▁lining 1
▁tara 1
▁strive 1
▁rounded 1
▁concentrated 1
▁cla 1
.15 1
▁static 1
▁medications 1
▁sharon 1
▁courthouse 1
▁ronaldo 1
▁recruitment 1
▁valve 1
pop 1
lk 1
▁magnet 1
▁useless 1
▁allegation 1
▁warmth 1
▁slack 1
▁ark 1
▁erupted 1
▁gilbert 1
▁winston 1
mba 1
▁endangered 1
▁mechanics 1
▁regulator 1
▁vibrant 1
▁midway 1
▁victorian 1
▁anticipation 1
▁tumor 1
▁informal 1
▁gy 1
▁gem 1
▁intake 1
▁poised 1
▁vault 1
▁joked 1
▁ibm 1
▁1939 1
mouth 1
▁nh 1
▁hank 1
▁supermarket 1
▁reservoir 1
arm 1
▁outreach 1
▁cooling 1
▁corey 1
▁occurring 1
▁delivers 1
▁charities 1
▁sophie 1
uro 1
▁merchant 1
▁loudly 1
▁explicit 1
▁lump 1
▁messaging 1
▁particles 1
▁cooperate 1
▁fitted 1
▁walsh 1
▁fcc 1
▁martha 1
▁thereafter 1
▁disrupt 1
atory 1
gio 1
.40 1
▁wives 1
▁sphere 1
▁slo 1
dp 1
▁mara 1
▁unlock 1
▁kw 1
augh 1
▁affiliated 1
▁balloon 1
▁baron 1
▁rises 1
▁crawl 1
▁cheeks 1
▁rallied 1
buy 1
▁phd 1
▁esp 1
▁aggression 1
▁rebellion 1
▁render 1
emp 1
ο 1
▁cavaliers 1
▁gla 1
▁hil 1
adi 1
▁reg 1
▁audition 1
▁infections 1
▁nominations 1
▁burke 1
▁elegant 1
▁chess 1
▁tomatoes 1
▁cigarettes 1
▁bannon 1
ovic 1
▁refusal 1
▁": 1
▁escort 1
▁fines 1
▁precision 1
▁echoed 1
▁dresses 1
▁lacked 1
▁28- 1
▁capitalization 1
▁automation 1
▁flour 1
▁donna 1
when 1
▁pursued 1
▁classification 1
▁naming 1
▁battlefield 1
▁queue 1
▁factories 1
▁servant 1
▁murders 1
▁volatile 1
rl 1
▁archives 1
▁accordance 1
▁hid 1
▁luther 1
▁ideological 1
▁sip 1
▁1946 1
▁springfield 1
▁irs 1
▁ballistic 1
vel 1
sol 1
▁disputed 1
force 1
▁cher 1
▁issuing 1
▁marina 1
inda 1
▁translate 1
▁swamp 1
▁fridge 1
▁tournaments 1
▁predators 1
▁launches 1
▁eg 1
▁manuel 1
▁selfish 1
▁erin 1
▁needless 1
▁dynasty 1
▁coordination 1
▁inhabitants 1
▁varied 1
▁beats 1
▁bou 1
▁inevitably 1
▁kushner 1
▁undoubtedly 1
▁sustainability 1
▁roth 1
▁consistency 1
▁sweater 1
first 1
▁poop 1
▁diocese 1
▁maggie 1
▁sn 1
▁mg 1
▁dil 1
▁lor 1
▁absorb 1
▁sche 1
▁speeches 1
▁solved 1
▁fourteen 1
▁26- 1
▁philippine 1
▁bruins 1
▁esta 1
▁wax 1
▁advantages 1
▁geneva 1
▁athens 1
▁?? 1
▁nag 1
▁fade 1
▁breasts 1
▁locals 1
▁roommate 1
▁productions 1
▁assessed 1
▁hollow 1
▁apc 1
▁thorn 1
▁maneuver 1
▁hazard 1
▁rosen 1
▁colorful 1
▁syracuse 1
▁tenants 1
▁fraser 1
▁brains 1
▁saddle 1
▁courtroom 1
▁vicious 1
▁skeptical 1
▁rallies 1
▁networking 1
▁1955 1
tax 1
▁mma 1
trade 1
▁goalie 1
tty 1
▁effectiveness 1
▁arabic 1
▁mathematics 1
▁fusion 1
▁restrict 1
:1 1
▁mick 1
▁spacecraft 1
▁cosby 1
▁paragraph 1
▁reasonably 1
▁blo 1
chin 1
▁determining 1
▁gonzalez 1
▁sol 1
▁turnover 1
lich 1
▁acute 1
▁ml 1
take 1
▁debates 1
flow 1
▁crunch 1
▁div 1
▁softly 1
▁flint 1
▁crawford 1
▁fen 1
▁pencil 1
▁contend 1
fly 1
equity 1
▁bulldogs 1
▁governors 1
▁subjected 1
▁legends 1
▁pulls 1
▁macro 1
▁usd 1
▁reset 1
▁commands 1
▁castro 1
▁25,000 1
▁impress 1
▁watchdog 1
▁1953 1
▁pros 1
▁)" 1
.45 1
▁immense 1
▁surveyed 1
▁15,000 1
▁risky 1
▁1,2 1
▁crashing 1
anga 1
mates 1
▁trinity 1
▁attitudes 1
▁mighty 1
▁functionality 1
path 1
hai 1
▁1943 1
▁kurt 1
▁diane 1
▁sw 1
▁pap 1
▁bern 1
▁relied 1
▁tak 1
sec 1
▁boulder 1
▁levy 1
lines 1
▁alexa 1
▁tracked 1
rier 1
▁strengthening 1
▁miners 1
▁pest 1
▁2022 1
▁calculations 1
/20 1
bling 1
▁jealous 1
▁narendra 1
▁beg 1
▁spice 1
▁attach 1
▁hopkins 1
▁distinctive 1
▁brew 1
▁hans 1
▁settling 1
▁inherited 1
risk 1
▁enters 1
▁exterior 1
▁nit 1
▁1954 1
▁tuned 1
▁yarn 1
▁recruited 1
▁blur 1
▁gram 1
▁zombie 1
▁dodge 1
▁cody 1
▁pg 1
▁refuses 1
▁darren 1
miss 1
▁licenses 1
▁drift 1
mid 1
▁unsure 1
▁sac 1
▁flex 1
▁resumed 1
▁commissioners 1
ators 1
▁2.2 1
▁broadcaster 1
trans 1
▁tray 1
ggy 1
▁32- 1
bee 1
▁splash 1
▁punished 1
▁theaters 1
▁durant 1
▁puff 1
▁pussy 1
▁competitor 1
▁carriage 1
imo 1
▁cows 1
▁questionable 1
▁filings 1
▁obsessed 1
▁adelaide 1
▁dominance 1
match 1
sun 1
▁perth 1
vy 1
▁gateway 1
▁unto 1
▁marshal 1
▁"? 1
▁6:30 1
▁suited 1
▁tractor 1
▁trailing 1
▁graves 1
▁inviting 1
▁bake 1
▁smashed 1
▁ref 1
▁harmony 1
▁robertson 1
▁shorts 1
▁1949 1
▁explorer 1
▁continually 1
▁105 1
▁relaxing 1
▁monica 1
▁armenian 1
▁finishes 1
▁nl 1
max 1
▁skating 1
▁mounting 1
host 1
▁fre 1
▁baked 1
▁saskatchewan 1
▁characterized 1
▁divorced 1
▁crypto 1
▁ala 1
▁folded 1
▁istanbul 1
▁gentleman 1
▁ruined 1
▁freeman 1
▁injustice 1
▁intermediate 1
▁2.4 1
▁excluding 1
▁problematic 1
▁mw 1
▁patron 1
▁uncovered 1
▁surround 1
▁coo 1
▁islamabad 1
▁tucked 1
▁moses 1
eman 1
family 1
▁wrongdoing 1
▁ferrari 1
aries 1
▁invalid 1
driving 1
▁davidson 1
▁chrome 1
▁tucker 1
▁activated 1
▁crashes 1
▁salvation 1
▁vince 1
▁cheat 1
▁reef 1
▁franco 1
▁nissan 1
▁promptly 1
▁wyoming 1
fest 1
▁banning 1
▁stretching 1
abad 1
▁shannon 1
▁£3 1
▁chapters 1
ule 1
▁cn 1
▁sunlight 1
▁bl 1
area 1
▁sucked 1
▁integrate 1
▁boarding 1
▁nie 1
▁continuously 1
▁greet 1
▁taco 1
▁kri 1
▁livestock 1
kins 1
▁reversed 1
call 1
▁labeled 1
▁sober 1
▁jerk 1
▁loads 1
▁relying 1
▁lam 1
▁coroner 1
thing 1
▁nobel 1
▁demons 1
▁dentist 1
▁irving 1
▁dominic 1
▁vibe 1
▁hype 1
road 1
rous 1
▁molly 1
▁jurors 1
▁hats 1
▁recount 1
▁variant 1
▁traits 1
▁villain 1
▁consequently 1
▁topping 1
▁alzheimer 1
▁imminent 1
mur 1
▁sovereignty 1
▁kindergarten 1
▁atr 1
ndi 1
▁bounced 1
▁align 1
▁jade 1
▁downward 1
▁axe 1
▁manuscript 1
▁forthcoming 1
▁template 1
ees 1
▁mull 1
▁examining 1
▁leaks 1
fan 1
▁chorus 1
▁locks 1
▁upward 1
▁jer 1
▁expo 1
▁discharge 1
▁practiced 1
▁costumes 1
▁austrian 1
▁coached 1
▁catcher 1
▁preserved 1
▁rhode 1
ying 1
pointer 1
store 1
▁dm 1
▁amnesty 1
▁owed 1
▁entre 1
▁eliminating 1
▁yale 1
▁departed 1
beat 1
▁messenger 1
corp 1
▁diplomats 1
së 1
▁varying 1
▁dissent 1
▁newer 1
▁municipalities 1
▁emphasized 1
uli 1
▁militia 1
▁creators 1
▁blunt 1
▁pos 1
▁breeding 1
▁tapped 1
▁unlawful 1
▁optional 1
▁markle 1
▁carrie 1
▁preparations 1
▁ashamed 1
▁kos 1
▁stumbled 1
▁motive 1
▁guitarist 1
▁smallest 1
.95 1
▁enrollment 1
▁pierce 1
▁parameters 1
cott 1
▁stellar 1
▁timothy 1
▁stray 1
▁ven 1
▁spends 1
▁flipped 1
ill 1
▁policing 1
▁hue 1
iah 1
▁variation 1
▁kun 1
▁charitable 1
▁precedent 1
▁cai 1
▁shapes 1
▁auditor 1
ingham 1
▁rum 1
▁libertarian 1
▁terribly 1
▁boxer 1
▁venezuelan 1
▁emphasize 1
▁congo 1
▁limp 1
ago 1
▁circus 1
girl 1
▁tm 1
▁minimize 1
▁html 1
▁outdoors 1
eck 1
▁prejudice 1
ough 1
▁gameplay 1
▁len 1
▁brighton 1
▁govern 1
▁biden 1
▁interfere 1
▁reconciliation 1
▁dense 1
▁utilize 1
▁enjoys 1
▁fringe 1
▁gj 1
▁arrange 1
▁mla 1
▁nw 1
lc 1
▁manila 1
pointers 1
▁ballet 1
▁encourages 1
▁drawer 1
used 1
▁explored 1
▁supplier 1
eni 1
▁pti 1
▁advise 1
▁palestine 1
▁finest 1
▁endured 1
▁portions 1
▁1952 1
▁sailing 1
▁tory 1
▁pact 1
▁deter 1
▁cpu 1
▁machinery 1
▁mortality 1
▁aggressively 1
▁unchanged 1
▁neighbouring 1
▁sul 1
▁guru 1
▁lawmaker 1
ech 1
▁poli 1
▁convictions 1
uer 1
▁garrett 1
aging 1
▁af 1
▁podium 1
▁fragile 1
-30 1
▁python 1
▁rays 1
▁roe 1
grad 1
▁27- 1
▁tomb 1
▁sic 1
▁rom 1
lp 1
▁cav 1
▁unbelievable 1
▁calculate 1
ras 1
▁elimination 1
▁alleges 1
▁aero 1
▁probability 1
▁foreigners 1
billion 1
▁linking 1
▁rug 1
▁dragons 1
▁unsuccessful 1
▁peg 1
▁bark 1
▁hash 1
ej 1
▁reconstruction 1
▁centered 1
▁crane 1
▁simulation 1
▁parenthood 1
▁buddhist 1
▁deutsche 1
▁restart 1
▁bak 1
▁davies 1
▁elevation 1
▁notification 1
eer 1
▁sharma 1
▁torch 1
▁louise 1
▁takeover 1
▁kenneth 1
▁intra 1
▁whatsapp 1
etti 1
filled 1
▁ambition 1
▁patterson 1
▁seminar 1
▁aurora 1
▁charming 1
® 1
▁sno 1
phe 1
▁forbes 1
▁aliens 1
▁prospective 1
▁exceed 1
dam 1
▁bosses 1
▁indie 1
▁comb 1
/2018 1
ación 1
▁brace 1
▁assertion 1
▁chop 1
▁mash 1
▁texans 1
▁tally 1
▁steak 1
▁backdrop 1
:20 1
osis 1
▁uae 1
▁judgement 1
▁vienna 1
▁pun 1
▁extends 1
▁vocals 1
▁nascar 1
▁predictions 1
▁delete 1
▁annoyed 1
rig 1
standing 1
▁1900 1
▁polite 1
▁superb 1
dae 1
▁beverage 1
▁dee 1
▁nails 1
▁bolster 1
▁triangle 1
▁preservation 1
▁hawk 1
▁demographic 1
▁clemson 1
▁sympathy 1
▁persona 1
vic 1
▁punched 1
▁figuring 1
▁collectively 1
▁affidavit 1
▁marble 1
▁dread 1
▁signatures 1
▁leslie 1
▁wears 1
▁shakespeare 1
▁midfield 1
▁laps 1
▁schumer 1
▁liu 1
▁spe 1
▁faded 1
finals 1
▁upgrades 1
bas 1
▁chunk 1
▁huh 1
▁thriller 1
▁devon 1
▁tariff 1
▁capped 1
▁\ 1
▁portable 1
▁cater 1
▁shiny 1
▁superhero 1
ree 1
▁verge 1
▁tasked 1
▁darker 1
▁charleston 1
▁foolish 1
▁pharmaceuticals 1
▁40,000 1
tag 1
▁rented 1
wheel 1
▁necessity 1
▁2.3 1
uda 1
▁mcgregor 1
▁reliance 1
▁intern 1
cm 1
▁hips 1
nier 1
breaking 1
▁recipients 1
▁intervene 1
▁sofa 1
▁emmy 1
▁tenth 1
▁joyce 1
▁marched 1
▁alphabet 1
▁mae 1
ovich 1
▁workshops 1
▁spouse 1
▁stove 1
specific 1
hel 1
▁** 1
▁darling 1
▁wagner 1
▁wizard 1
▁fatally 1
▁mitt 1
▁airplane 1
▁encouragement 1
▁bron 1
▁koch 1
▁relies 1
53 1
▁midwest 1
▁cue 1
▁conn 1
cro 1
▁beautifully 1
▁decisive 1
▁bah 1
▁moo 1
▁shawn 1
▁designation 1
pack 1
▁kidding 1
▁salon 1
▁gardner 1
▁rested 1
▁quicker 1
▁adjustment 1
▁contender 1
sign 1
▁feud 1
▁merged 1
▁snacks 1
▁admitting 1
▁whatsoever 1
▁slaughter 1
ô 1
▁headache 1
ña 1
▁circular 1
▁wickets 1
▁correction 1
▁positively 1
▁fil 1
▁tyre 1
▁sculpture 1
▁strings 1
▁falcon 1
lessness 1
▁cube 1
▁wicked 1
▁readily 1
oka 1
▁petty 1
▁condemn 1
▁founders 1
▁performer 1
ddle 1
▁celtic 1
▁miguel 1
▁lsu 1
▁rsi 1
▁franc 1
▁slope 1
▁temper 1
▁maid 1
▁picnic 1
oa 1
▁surveys 1
▁sachs 1
▁architectural 1
▁sup 1
▁prohibition 1
▁undergoing 1
▁nerves 1
▁abr 1
▁adjustments 1
▁printer 1
▁lis 1
▁obesity 1
▁symbolic 1
▁anaheim 1
▁opec 1
▁imprisonment 1
▁collaborative 1
▁jess 1
dollar 1
▁endure 1
▁folder 1
eyed 1
▁telescope 1
▁hayes 1
▁eva 1
▁variations 1
▁harness 1
▁homemade 1
▁tornado 1
▁romania 1
▁integral 1
▁campaigning 1
mond 1
▁shelters 1
▁chased 1
▁commenting 1
ass 1
▁hunters 1
▁yi 1
▁enjoyable 1
▁mn 1
▁vitamin 1
▁planting 1
▁caravan 1
▁famously 1
▁charlottesville 1
▁sung 1
▁tau 1
▁posing 1
llen 1
▁berg 1
▁receivers 1
▁dough 1
elected 1
ement 1
▁everton 1
▁advancement 1
▁encounters 1
▁frames 1
▁negotiated 1
▁gifted 1
▁pf 1
▁lava 1
▁adverse 1
▁personalities 1
▁dell 1
▁pep 1
▁obey 1
kha 1
▁hospitality 1
vol 1
▁healthier 1
▁stressful 1
▁altitude 1
▁betty 1
▁attackers 1
▁mugabe 1
▁visibility 1
▁belle 1
▁liberties 1
▁underwent 1
▁contention 1
▁atomic 1
▁haley 1
▁stabbing 1
▁presenter 1
▁loses 1
ates 1
▁hassan 1
▁pharmacy 1
▁despair 1
cola 1
who 1
und 1
▁exploitation 1
▁dementia 1
▁petrol 1
-22 1
▁shattered 1
▁sexuality 1
rad 1
stick 1
▁marginal 1
▁mic 1
▁gag 1
▁archbishop 1
▁suppress 1
▁tablets 1
▁southeastern 1
▁thy 1
5.00 1
▁symbols 1
▁hydrogen 1
▁shades 1
▁utter 1
pacific 1
▁wander 1
ml 1
▁magistrate 1
▁lightweight 1
▁grandpa 1
▁uganda 1
▁bert 1
▁committees 1
▁170 1
▁hobby 1
ois 1
▁sidelines 1
▁brewers 1
▁notebook 1
▁creep 1
▁sleeve 1
ador 1
▁fuels 1
▁wendy 1
▁alleging 1
▁heath 1
▁straightforward 1
î 1
three 1
▁fellowship 1
▁nonsense 1
mine 1
▁unconstitutional 1
▁ris 1
cross 1
▁territorial 1
ison 1
▁destructive 1
▁freelance 1
▁croatia 1
▁mol 1
▁berth 1
▁litter 1
boro 1
dle 1
ih 1
▁allocated 1
▁klein 1
▁gui 1
▁promotional 1
▁lego 1
▁ventures 1
▁regulated 1
▁exceptions 1
▁supervision 1
▁pont 1
▁satisfy 1
▁vel 1
▁cel 1
rid 1
▁renewal 1
▁roast 1
▁monarch 1
yes 1
▁packs 1
using 1
▁timely 1
▁pharma 1
▁mach 1
▁indonesian 1
▁ahmad 1
▁daylight 1
▁sus 1
▁6-3 1
▁thoughtful 1
▁defining 1
▁intriguing 1
▁brink 1
▁clippers 1
▁1918 1
▁disgusting 1
▁evangelical 1
▁metals 1
▁goat 1
50,000 1
▁vulnerability 1
▁conceded 1
▁diplomat 1
hm 1
▁conscience 1
▁motorists 1
▁sei 1
hee 1
▁kits 1
▁rama 1
live 1
▁imposing 1
▁rab 1
300 1
▁filmmaker 1
▁macon 1
▁abbey 1
▁rubio 1
▁nominees 1
works 1
camp 1
▁kc 1
▁merchandise 1
▁quantity 1
▁geographic 1
▁greens 1
▁patricia 1
▁terrific 1
▁knit 1
government 1
▁clara 1
▁parcel 1
▁bir 1
▁highlighting 1
▁carnival 1
▁sync 1
nin 1
▁mohamed 1
stage 1
▁quin 1
▁branded 1
▁restructuring 1
▁dispatch 1
▁microphone 1
lift 1
▁combining 1
▁rivalry 1
▁lindsey 1
▁ginger 1
▁revelations 1
▁accompanying 1
▁successive 1
▁confessed 1
▁heap 1
▁messy 1
▁reservation 1
▁crafts 1
▁amend 1
▁roosevelt 1
▁prescribed 1
▁reasoning 1
▁succession 1
▁holt 1
eller 1
▁dunk 1
chief 1
▁inadequate 1
▁specify 1
▁cancellation 1
▁tying 1
▁phillip 1
▁raven 1
▁designing 1
▁commute 1
▁apollo 1
fra 1
▁gerald 1
▁infinite 1
▁consult 1
▁emailed 1
▁persuade 1
▁jackets 1
▁malicious 1
zon 1
▁stubborn 1
▁lent 1
▁liga 1
▁predominantly 1
▁turnovers 1
▁bind 1
▁contempt 1
në 1
▁cali 1
▁builds 1
▁sabha 1
oro 1
▁bomber 1
▁pirate 1
▁fol 1
▁strait 1
▁lgbtq 1
▁linear 1
▁tags 1
ucci 1
idi 1
▁reacted 1
▁barred 1
▁café 1
▁enthusiastic 1
▁niece 1
phone 1
▁samantha 1
▁moor 1
▁bt 1
▁decree 1
▁1,1 1
▁prediction 1
▁zuckerberg 1
▁pip 1
▁homeowners 1
▁withdrawn 1
length 1
▁cache 1
", 1
▁swung 1
а 1
▁protagonist 1
▁rumours 1
▁protesting 1
▁sie 1
thy 1
▁tipped 1
▁gat 1
▁instinct 1
▁serbia 1
▁.; 1
▁1951 1
▁madness 1
▁demonstrates 1
▁metric 1
▁akin 1
selling 1
▁fallout 1
▁deaf 1
▁ef 1
▁acquisitions 1
▁eden 1
▁swallow 1
▁6,000 1
▁mixing 1
▁sellers 1
▁socially 1
hor 1
▁identities 1
▁dividends 1
▁cedar 1
▁prone 1
▁debbie 1
▁alfred 1
group 1
▁banana 1
▁1.0 1
▁violate 1
▁conditioning 1
▁destinations 1
woman 1
▁interpret 1
▁coordinated 1
▁riverside 1
lus 1
iko 1
ër 1
brand 1
▁variables 1
▁« 1
▁backward 1
▁planets 1
▁wc 1
▁labs 1
gged 1
▁doorway 1
▁surfaced 1
▁garner 1
▁housed 1
▁pul 1
▁chang 1
▁juventus 1
▁solving 1
▁hog 1
▁skinny 1
▁anime 1
▁codes 1
▁tactic 1
▁corpse 1
▁pd 1
▁germans 1
▁kot 1
▁vista 1
-25 1
▁administered 1
▁hungarian 1
▁speeding 1
tiv 1
▁natalie 1
das 1
▁gavin 1
rant 1
▁carved 1
▁safeguard 1
section 1
▁harold 1
▁cdc 1
▁mann 1
▁vic 1
52 1
▁exile 1
▁` 1
▁underwear 1
▁monroe 1
▁proximity 1
▁obsession 1
▁extremist 1
▁boasts 1
▁wandering 1
hur 1
▁compromised 1
borough 1
▁invention 1
▁veto 1
▁rewarded 1
и 1
▁dent 1
▁arg 1
▁perfection 1
▁sherman 1
▁lucrative 1
▁clown 1
▁nigerians 1
eve 1
▁excluded 1
▁duchess 1
lum 1
▁coconut 1
▁preston 1
▁insisting 1
cum 1
threatening 1
▁unbeaten 1
▁yep 1
▁4-1 1
▁capitalist 1
▁odi 1
▁!). 1
owner 1
▁sensitivity 1
▁rebuilding 1
acre 1
▁carpenter 1
▁attributes 1
▁rains 1
▁sage 1
▁bolton 1
▁rm 1
▁node 1
▁pipes 1
▁dimension 1
▁genocide 1
▁pdf 1
▁enacted 1
▁manifest 1
▁subscribing 1
▁rows 1
ific 1
hoo 1
▁specified 1
▁shotgun 1
▁mohammad 1
▁fro 1
▁drums 1
▁barrett 1
held 1
▁fir 1
▁indicted 1
▁undergraduate 1
▁compatible 1
▁2.1 1
hurst 1
▁hebrew 1
▁posters 1
▁vector 1
▁moms 1
▁canon 1
▁ambitions 1
▁pga 1
isha 1
dot 1
▁chickens 1
▁spells 1
▁critique 1
▁6-4 1
▁platinum 1
▁brendan 1
▁baseman 1
▁clinics 1
▁petersburg 1
▁dictator 1
▁colon 1
▁cove 1
ulu 1
▁abby 1
▁columns 1
▁transfers 1
▁amendments 1
▁beers 1
fund 1
aq 1
ory 1
▁unc 1
000 1
▁incorporate 1
▁judged 1
▁champ 1
▁trailed 1
▁dart 1
▁proudly 1
▁brow 1
▁dwarf 1
▁psycho 1
▁tina 1
▁wilderness 1
▁leagues 1
▁maiden 1
inter 1
▁stigma 1
largest 1
▁sem 1
▁01 1
▁rats 1
▁hoo 1
running 1
clock 1
iro 1
south 1
▁null 1
▁niche 1
▁trent 1
▁dancer 1
▁stab 1
▁interceptions 1
▁rin 1
▁insurers 1
▁norfolk 1
▁marker 1
▁gunshot 1
achi 1
ote 1
▁threatens 1
num 1
▁heir 1
▁waving 1
▁hugged 1
square 1
rna 1
▁distraction 1
▁sewing 1
▁zoom 1
▁lamar 1
▁vegetable 1
▁shrine 1
▁raids 1
▁favored 1
▁oversee 1
udi 1
▁fetch 1
▁wimbledon 1
▁profitability 1
qi 1
▁progression 1
version 1
▁propose 1
▁300,000 1
▁astros 1
▁innocence 1
ţi 1
▁100- 1
▁mk 1
▁chick 1
ancy 1
-24 1
▁pornography 1
▁35- 1
▁troubles 1
▁obtaining 1
▁fundamentally 1
bil 1
eon 1
building 1
▁allowance 1
umi 1
▁tn 1
▁iceland 1
▁seating 1
▁webb 1
frame 1
▁abd 1
▁reservations 1
boo 1
▁philosopher 1
▁greeting 1
ão 1
▁semifinals 1
▁confess 1
his 1
mph 1
▁alumni 1
▁monk 1
▁calvin 1
▁bullpen 1
▁burnt 1
▁pil 1
▁ashes 1
▁candle 1
▁knicks 1
▁somalia 1
▁unnamed 1
▁pics 1
-23 1
▁suspend 1
▁portray 1
lik 1
▁vendor 1
▁nfc 1
▁nightclub 1
bay 1
▁conjunction 1
▁jag 1
outs 1
ρ 1
▁db 1
▁wildcats 1
▁maxim 1
▁eb 1
▁affection 1
▁squeezed 1
▁-> 1
▁volleyball 1
▁thermal 1
▁29- 1
tori 1
lab 1
▁disastrous 1
▁coincidence 1
▁attendant 1
▁hogan 1
▁stranded 1
uan 1
▁uefa 1
▁owing 1
▁drummer 1
anti 1
▁fitzgerald 1
▁gha 1
▁submarine 1
▁crest 1
▁misdemeanor 1
▁unwanted 1
▁prairie 1
▁royals 1
cas 1
▁antibiotics 1
▁1917 1
▁pdp 1
oriented 1
▁malaysian 1
amo 1
▁renaissance 1
▁buffer 1
uck 1
▁ebitda 1
▁magnificent 1
body 1
▁polo 1
▁helicopters 1
cies 1
▁1.9 1
▁terrace 1
▁superman 1
▁counseling 1
▁blossom 1
▁wad 1
▁scho 1
▁mattis 1
▁weed 1
▁organs 1
▁unidentified 1
▁bam 1
▁outline 1
▁salvador 1
▁measurements 1
raj 1
▁jeep 1
▁millennials 1
▁recognizing 1
▁cork 1
▁wildly 1
▁mathematical 1
▁wrapping 1
▁neighbour 1
▁hailed 1
▁robbed 1
▁alexis 1
▁cron 1
▁beaver 1
▁pressures 1
▁schu 1
vu 1
▁plum 1
workers 1
qa 1
▁liv 1
▁sunni 1
▁horizontal 1
▁8:30 1
▁boil 1
▁unanimously 1
▁analyzed 1
gr 1
▁gw 1
▁creepy 1
▁expressions 1
▁dioxide 1
▁contra 1
; 1
▁stink 1
▁hugely 1
▁ore 1
▁greene 1
kind 1
▁comprised 1
▁bees 1
nom 1
▁ces 1
▁narrowly 1
▁medic 1
▁itunes 1
bon 1
▁chloe 1
▁1938 1
▁admire 1
ulation 1
▁dragging 1
graph 1
▁footsteps 1
▁desires 1
▁assert 1
▁bans 1
▁probable 1
▁profiles 1
▁casa 1
▁certainty 1
▁)," 1
ere 1
ère 1
▁advent 1
▁"" 1
▁freeway 1
▁awe 1
seat 1
▁underwater 1
▁catastrophic 1
▁gab 1
▁ethiopia 1
▁initiate 1
▁kidnapped 1
▁chatting 1
▁cocktail 1
▁manufacture 1
▁jays 1
▁contracted 1
▁citation 1
▁ré 1
▁individually 1
▁bidding 1
▁recommends 1
▁silently 1
▁5:30 1
▁premise 1
▁1936 1
▁steer 1
eva 1
▁pushes 1
▁crab 1
▁cobb 1
▁squirrel 1
▁geek 1
▁exp 1
▁rant 1
▁weekday 1
▁synthetic 1
▁clare 1
▁abbas 1
▁expired 1
▁wonders 1
▁kemp 1
η 1
▁attachment 1
▁ironically 1
▁credentials 1
▁discovering 1
▁substances 1
▁stain 1
sharing 1
▁mund 1
▁glove 1
.60 1
zzo 1
▁trustees 1
▁nt 1
▁beverly 1
▁lenders 1
▁clues 1
▁hashtag 1
▁smoothly 1
▁eldest 1
▁qualcomm 1
▁alarming 1
▁raz 1
▁aligned 1
▁flaws 1
▁sheikh 1
▁poems 1
▁faction 1
▁sponsorship 1
▁tolerate 1
▁borrowed 1
aff 1
▁stump 1
▁wildfire 1
▁circulation 1
▁payroll 1
▁spelling 1
▁vietnamese 1
talk 1
▁rubbed 1
▁interestingly 1
▁demonstrators 1
▁2.6 1
▁examiner 1
▁puppet 1
▁exotic 1
▁overweight 1
▁interception 1
▁rem 1
▁tad 1
▁pigs 1
▁moh 1
▁turmoil 1
sted 1
▁constitute 1
▁forgiveness 1
▁endeavor 1
wash 1
▁billing 1
▁imaging 1
▁disregard 1
▁baton 1
▁adopting 1
▁proteins 1
▁jumper 1
▁sacked 1
erman 1
▁moody 1
▁thrones 1
▁rendered 1
▁economically 1
▁hospitalized 1
enko 1
▁ipo 1
▁fixture 1
headed 1
▁slick 1
▁hamstring 1
▁dav 1
cell 1
nh 1
▁cindy 1
▁marines 1
▁stretches 1
▁mira 1
▁albany 1
tree 1
▁corrected 1
). 1
▁cairo 1
▁doom 1
eli 1
▁floyd 1
▁steals 1
▁extensively 1
ota 1
▁catalyst 1
▁patches 1
▁kathy 1
▁scoop 1
▁mentions 1
▁lust 1
▁nash 1
▁diameter 1
▁· 1
tron 1
neill 1
▁edhe 1
sea 1
▁rifles 1
▁amsterdam 1
▁abundance 1
▁1-2 1
sale 1
▁spec 1
▁115 1
▁garlic 1
mg 1
▁uncommon 1
ome 1
▁pretending 1
▁troubling 1
▁clement 1
▁benefited 1
▁sala 1
▁satisfying 1
zzle 1
▁begging 1
▁abruptly 1
{ 1
▁butterfly 1
▁crosses 1
▁exceeded 1
▁poles 1
logy 1
▁cycles 1
▁damascus 1
▁consuming 1
▁highways 1
▁lyn 1
▁digest 1
tec 1
▁symphony 1
▁fb 1
▁postal 1
▁uprising 1
▁spoil 1
▁mist 1
▁cushion 1
▁revisit 1
▁proves 1
▁tackling 1
▁sultan 1
▁festivals 1
▁postponed 1
sport 1
▁corrections 1
▁rapids 1
▁hab 1
▁nude 1
▁dice 1
▁turf 1
▁undocumented 1
last 1
▁vie 1
▁penguins 1
▁sunrise 1
▁agreeing 1
▁sights 1
▁sixty 1
▁influences 1
▁solomon 1
▁curtain 1
▁diaper 1
▁defect 1
▁jac 1
▁hardy 1
▁sav 1
▁boris 1
▁optical 1
▁lunar 1
▁rainy 1
▁outrageous 1
▁tracy 1
▁restraint 1
▁seize 1
▁width 1
▁ding 1
hearted 1
▁sharif 1
▁inmate 1
▁syn 1
▁rendering 1
▁leafs 1
cel 1
▁rf 1
▁warrants 1
▁responders 1
▁blasted 1
▁rift 1
▁stationed 1
▁mural 1
▁exc 1
value 1
rise 1
▁whisper 1
▁southampton 1
▁bale 1
▁remembers 1
-35 1
after 1
▁discourse 1
▁johnston 1
▁originated 1
▁chap 1
▁goddess 1
▁loom 1
▁occurrence 1
ć 1
▁blaming 1
▁accelerated 1
▁111 1
▁nafta 1
▁grammar 1
depth 1
tone 1
▁redskins 1
▁incorrect 1
▁penis 1
▁downside 1
▁4-0 1
▁northeastern 1
sbury 1
▁observatory 1
▁fernando 1
▁refrain 1
▁cru 1
▁unrelated 1
▁myers 1
▁wig 1
▁diary 1
▁pissed 1
▁imprisoned 1
▁santos 1
▁architects 1
▁realization 1
▁poisoning 1
▁concludes 1
▁vir 1
▁durham 1
▁concealed 1
▁dancers 1
▁honesty 1
gua 1
▁alma 1
▁laundering 1
▁60- 1
▁turnbull 1
ils 1
▁assisting 1
▁installing 1
▁hikes 1
▁characteristic 1
▁raptors 1
▁judy 1
▁framed 1
tern 1
▁stimulus 1
▁coke 1
▁flyers 1
taking 1
▁gul 1
с 1
▁braves 1
▁federer 1
▁repeating 1
▁halifax 1
rav 1
▁bayern 1
tim 1
ality 1
▁interpreted 1
▁brake 1
▁monitored 1
▁semifinal 1
park 1
▁fraudulent 1
▁volcano 1
▁ignorance 1
▁floods 1
▁lifelong 1
▁brushed 1
▁afl 1
▁tang 1
▁insects 1
▁amp 1
pod 1
▁correlation 1
▁marching 1
▁depicted 1
▁aforementioned 1
▁behaviors 1
▁glowing 1
▁jenner 1
▁persist 1
▁2.7 1
▁turtle 1
▁offender 1
▁cardiff 1
▁numb 1
▁1933 1
▁mentality 1
▁atheist 1
▁confirming 1
▁renovation 1
▁checkpoint 1
▁efficiently 1
▁dreamed 1
▁morocco 1
▁frog 1
▁newsletters 1
▁tastes 1
▁6-2 1
▁skeleton 1
▁brennan 1
▁cereal 1
▁pew 1
▁manipulation 1
▁rus 1
▁wick 1
▁spl 1
▁swat 1
▁plains 1
▁participant 1
tress 1
▁rocked 1
▁insult 1
rik 1
▁overturned 1
▁nazis 1
▁copied 1
▁snaps 1
▁overview 1
▁fueled 1
rim 1
▁flick 1
mac 1
.80 1
dri 1
▁capturing 1
▁aerospace 1
▁reduces 1
dorf 1
etta 1
▁conceal 1
▁exclude 1
▁guarantees 1
drive 1
▁meme 1
▁requesting 1
▁wheeler 1
▁rohingya 1
▁collusion 1
has 1
zing 1
▁jp 1
▁partnered 1
▁poker 1
ttle 1
▁peel 1
▁abs 1
country 1
▁specialists 1
▁halted 1
gam 1
shirts 1
▁prisons 1
mah 1
▁potent 1
▁swinging 1
fat 1
▁norms 1
▁algorithms 1
turn 1
▁gossip 1
▁gamble 1
changing 1
▁reinforce 1
▁squat 1
▁dorm 1
▁connects 1
▁snyder 1
▁450 1
.35 1
▁behavioral 1
▁startups 1
▁amended 1
cp 1
▁së 1
att 1
▁reds 1
▁councillors 1
▁sorrow 1
▁weakened 1
▁knockout 1
▁1937 1
▁attracting 1
▁preferences 1
▁barb 1
dine 1
▁slur 1
▁associations 1
igo 1
say 1
▁conway 1
▁atmospheric 1
▁beacon 1
▁deliveries 1
▁să 1
▁maha 1
yle 1
▁retaliation 1
lat 1
▁rey 1
▁campuses 1
▁diner 1
▁ui 1
▁dismissal 1
▁willie 1
ega 1
▁quake 1
omo 1
▁uniforms 1
▁acoustic 1
▁gujarat 1
▁vp 1
▁2,500 1
▁outgoing 1
▁logged 1
▁seekers 1
▁burton 1
▁supper 1
ope 1
▁lindsay 1
▁cruiser 1
▁allison 1
▁minors 1
▁lev 1
▁diagnostic 1
▁caesar 1
▁vend 1
▁clips 1
▁5.5 1
▁raja 1
▁canton 1
▁intercept 1
▁tram 1
lier 1
▁ancestors 1
▁rc 1
▁ras 1
▁abdullah 1
▁countryside 1
▁randomly 1
▁swarm 1
▁eugene 1
▁avengers 1
▁urgency 1
▁frightened 1
▁unrest 1
sub 1
nning 1
▁easiest 1
▁staffers 1
people 1
▁moto 1
phy 1
▁dé 1
▁flawed 1
▁haunted 1
▁fab 1
▁champagne 1
▁molecular 1
▁clam 1
dress 1
▁appoint 1
▁evolving 1
▁kylie 1
tail 1
▁cartel 1
▁yacht 1
▁bradford 1
▁paramount 1
:10 1
rose 1
▁foam 1
▁hypo 1
▁bengal 1
▁sentinel 1
▁santiago 1
▁rak 1
▁consist 1
▁terra 1
▁2030 1
▁caleb 1
late 1
race 1
▁enlarge 1
▁slapped 1
▁nis 1
▁unusually 1
▁impeachment 1
▁nad 1
iza 1
▁rooted 1
▁excel 1
▁performs 1
▁chaotic 1
▁electorate 1
▁vernon 1
▁philosophical 1
▁diaz 1
▁fries 1
kat 1
▁hardship 1
▁manga 1
▁conquer 1
▁disciplinary 1
▁glacier 1
▁chalk 1
▁audi 1
▁guessed 1
▁nursery 1
bia 1
▁reno 1
▁watt 1
▁schmidt 1
▁burglary 1
▁gravel 1
▁rafael 1
▁newport 1
▁cyclone 1
sure 1
▁reminding 1
▁groceries 1
▁louder 1
▁europa 1
▁candid 1
▁moth 1
▁preceded 1
neck 1
▁nokia 1
▁demolition 1
▁buzzfeed 1
uel 1
stream 1
▁wary 1
▁quarterbacks 1
▁cone 1
▁embarrassment 1
▁anc 1
▁murderer 1
▁zoe 1
▁rover 1
▁overlooked 1
will 1
▁snapchat 1
▁installment 1
▁belfast 1
▁revolt 1
fri 1
▁unexpectedly 1
▁eff 1
▁populist 1
▁medicines 1
▁sandra 1
▁neal 1
▁liar 1
λ 1
▁biblical 1
hir 1
around 1
▁looming 1
elo 1
▁wellington 1
т 1
▁providence 1
▁varieties 1
ient 1
▁bishops 1
third 1
center 1
▁prolonged 1
▁apo 1
▁twitch 1
▁imf 1
▁avalanche 1
▁ent 1
▁sedan 1
▁clayton 1
▁orphan 1
ij 1
▁peaked 1
imin 1
▁ounce 1
from 1
▁develops 1
▁congratulations 1
▁malik 1
▁esc 1
▁empathy 1
▁tended 1
▁strained 1
lane 1
▁sucks 1
▁surrey 1
▁undertaken 1
▁foremost 1
▁paw 1
▁retro 1
▁explosives 1
health 1
▁batter 1
▁mets 1
▁dixon 1
▁dimensions 1
▁shaft 1
▁barber 1
▁protestant 1
▁outing 1
▁anglo 1
▁fran 1
▁kitty 1
▁lori 1
▁nerd 1
▁surroundings 1
▁satan 1
▁sounding 1
▁swiftly 1
▁mosul 1
▁mali 1
▁pedal 1
▁mam 1
▁successes 1
▁shields 1
▁butcher 1
▁slash 1
▁handles 1
vr 1
▁resorts 1
▁manitoba 1
osi 1
▁102 1
▁inherent 1
▁pup 1
▁flank 1
▁matrix 1
boat 1
▁128 1
▁cheering 1
▁lumber 1
▁hur 1
▁rouge 1
▁rut 1
etic 1
▁blankets 1
▁comfortably 1
▁gore 1
▁replica 1
▁bait 1
▁inclined 1
▁hacked 1
sham 1
control 1
▁guides 1
▁premiered 1
▁predictable 1
▁unofficial 1
ops 1
dec 1
▁comprising 1
▁hose 1
▁flavors 1
▁chapman 1
tain 1
▁darn 1
lé 1
▁heel 1
▁devin 1
def 1
▁honorary 1
trump 1
▁battled 1
tsu 1
▁volkswagen 1
▁bombers 1
▁plaintiffs 1
▁hostage 1
▁ov 1
ل 1
▁teddy 1
▁unemployed 1
▁methodist 1
▁mortal 1
▁mitigate 1
▁knitting 1
▁stoke 1
mis 1
▁wis 1
▁damp 1
▁williamson 1
▁ruler 1
▁dreaming 1
▁pasta 1
nel 1
▁!!!! 1
▁reunited 1
▁nowadays 1
▁blessings 1
▁obstruction 1
ril 1
▁raft 1
▁festive 1
▁tenn 1
▁turbo 1
▁ranger 1
▁vanguard 1
▁chester 1
▁cuomo 1
▁250,000 1
ono 1
▁kei 1
▁kerala 1
▁explode 1
▁rochester 1
▁outfits 1
▁sed 1
▁quota 1
▁ricky 1
▁constituents 1
phil 1
▁shrink 1
▁weiss 1
▁exposing 1
▁villagers 1
▁showdown 1
▁screenshot 1
▁persian 1
izer 1
▁auckland 1
eight 1
assi 1
▁alcoholic 1
▁frankfurt 1
▁expenditure 1
▁reproductive 1
lessly 1
▁upload 1
▁filipino 1
▁decay 1
▁merry 1
▁eyebrows 1
▁nicolas 1
hang 1
▁asteroid 1
▁ble 1
▁dp 1
▁9:30 1
▁petro 1
lea 1
▁cw 1
▁warns 1
▁learnt 1
▁commanded 1
▁implied 1
▁roadway 1
▁hilton 1
nde 1
▁scooter 1
▁assassin 1
▁assign 1
tum 1
▁gam 1
▁remarked 1
▁verified 1
▁balcony 1
▁cries 1
issa 1
▁grinned 1
▁2.8 1
▁empower 1
▁politico 1
▁patrons 1
▁insufficient 1
▁cara 1
▁serena 1
fs 1
▁clutch 1
oda 1
▁preschool 1
rail 1
offs 1
▁sinn 1
▁traumatic 1
▁seller 1
▁teamed 1
mma 1
col 1
▁earnest 1
▁buff 1
▁ebola 1
▁remark 1
▁revive 1
▁candles 1
▁hammond 1
lings 1
▁treasurer 1
▁collector 1
▁commodities 1
és 1
▁uploaded 1
earnings 1
▁thrill 1
▁lure 1
▁ruins 1
▁resolutions 1
▁exams 1
▁argentine 1
▁marion 1
▁4-3 1
▁lbs 1
▁verb 1
▁alexandria 1
plan 1
▁ella 1
▁sym 1
▁sausage 1
200 1
▁heavier 1
jë 1
▁xl 1
▁discomfort 1
▁genesis 1
▁embed 1
▁kro 1
▁jaguars 1
▁chic 1
through 1
stand 1
rina 1
▁turnaround 1
▁baghdad 1
ffe 1
▁lowering 1
▁wikipedia 1
.05 1
▁1914 1
▁pedestrians 1
zone 1
ulating 1
▁jacobs 1
▁nes 1
▁overwhelmingly 1
▁cryptocurrencies 1
▁pivotal 1
▁confined 1
▁compelled 1
ulate 1
▁dislike 1
nam 1
▁cracks 1
alo 1
▁calf 1
▁trending 1
▁wandered 1
,200 1
▁acclaimed 1
▁tagged 1
▁youths 1
▁relocated 1
▁plunged 1
▁pumping 1
▁seventeen 1
▁justification 1
▁2017-18 1
▁drunken 1
▁marty 1
▁hind 1
▁heroic 1
▁mickey 1
▁bury 1
▁sandwiches 1
▁queer 1
tero 1
bone 1
▁measurement 1
▁revel 1
sum 1
▁slogan 1
▁shack 1
pho 1
▁elk 1
▁nra 1
▁liquidity 1
▁depart 1
▁blah 1
▁monitors 1
▁remarkably 1
▁patel 1
▁sinking 1
:40 1
▁sever 1
▁retrieve 1
▁azerbaijan 1
▁implies 1
▁shutting 1
▁oracle 1
▁sewer 1
▁manor 1
▁katherine 1
▁plantation 1
six 1
▁wholly 1
▁textile 1
▁internally 1
▁haiti 1
▁trout 1
▁xavier 1
▁goodman 1
▁commanding 1
▁bengaluru 1
▁backgrounds 1
▁commemorate 1
▁ll 1
▁104 1
▁6-1 1
▁rehearsal 1
▁reliever 1
▁newman 1
▁tomato 1
▁constraints 1
▁10:30 1
▁thieves 1
vie 1
▁meg 1
▁khashoggi 1
▁automobile 1
▁leisure 1
▁steele 1
▁contests 1
▁ebay 1
▁herbert 1
▁cin 1
▁surreal 1
▁dor 1
zza 1
▁3.0 1
▁eighteen 1
▁psychiatric 1
cca 1
▁laden 1
▁pathway 1
▁1919 1
▁diplomacy 1
▁grounded 1
ace 1
▁tc 1
seeded 1
▁grams 1
▁hartford 1
▁eligibility 1
worthy 1
▁consolidated 1
▁mtv 1
▁amd 1
▁illnesses 1
slav 1
▁catalog 1
▁barclays 1
▁luggage 1
china 1
▁lace 1
▁danced 1
▁blockbuster 1
▁ivanka 1
▁hoffman 1
▁classmates 1
▁spat 1
ر 1
hari 1
# 1
▁fp 1
▁concessions 1
▁ske 1
▁gunfire 1
hot 1
▁kë 1
▁ottoman 1
▁grassroots 1
▁recurring 1
▁baseline 1
▁undercover 1
llo 1
▁merchants 1
lived 1
▁confirms 1
lov 1
▁reap 1
▁obstacle 1
▁renew 1
ullah 1
▁accumulated 1
▁tilt 1
▁flake 1
▁capt 1
▁tutorial 1
▁dove 1
▁consulate 1
▁wellness 1
▁descended 1
▁immunity 1
▁systematic 1
▁historians 1
▁roar 1
▁edged 1
vent 1
vid 1
▁slump 1
▁enduring 1
▁vu 1
dha 1
▁premiums 1
▁axis 1
▁telecommunications 1
▁detailing 1
▁mast 1
▁pavement 1
▁activism 1
▁jamaica 1
▁0.00 1
▁nikola 1
▁baba 1
▁6.5 1
▁slipping 1
▁crossover 1
▁disasters 1
▁refreshing 1
mini 1
other 1
▁combo 1
uto 1
▁ava 1
▁hom 1
▁correspond 1
▁hampton 1
▁suitcase 1
▁reconsider 1
deep 1
▁smear 1
ø 1
▁theatrical 1
▁skipper 1
▁gangs 1
▁andrews 1
▁shootout 1
▁indicators 1
▁pyramid 1
▁farewell 1
▁stalled 1
▁watts 1
pie 1
▁gust 1
nov 1
▁fairness 1
▁grad 1
▁rav 1
▁altar 1
stead 1
▁mare 1
▁lacks 1
▁populated 1
rou 1
uru 1
▁assaulting 1
▁possessions 1
▁willow 1
▁demolished 1
▁frightening 1
▁stu 1
▁tortured 1
▁literacy 1
▁progressed 1
▁staggering 1
▁1,3 1
▁vanished 1
ais 1
▁brotherhood 1
▁swings 1
▁2-3 1
ink 1
ines 1
script 1
▁bum 1
▁shovel 1
▁mentioning 1
pd 1
▁promotions 1
mun 1
▁qualification 1
▁ibrahim 1
uv 1
serv 1
teen 1
runner 1
spec 1
▁deported 1
▁sympathetic 1
▁accomplishments 1
▁devotion 1
▁kisses 1
▁pitchers 1
▁appropriately 1
▁summoned 1
▁strikeouts 1
▁lowe 1
▁unsafe 1
▁miranda 1
▁imagery 1
uga 1
abi 1
▁1934 1
▁remotely 1
▁smelled 1
▁possessed 1
о 1
▁headset 1
▁singular 1
▁forbidden 1
▁1929 1
▁gamers 1
▁motel 1
▁pokémon 1
rá 1
▁paramedics 1
▁pant 1
▁pony 1
▁entertain 1
til 1
▁meredith 1
▁bastard 1
mia 1
otic 1
▁unanimous 1
▁jointly 1
▁unpredictable 1
▁nvidia 1
▁hypothesis 1
▁compares 1
▁protested 1
kes 1
plic 1
▁...... 1
▁swallowed 1
▁dunn 1
▁daca 1
▁absorbed 1
▁.), 1
▁thigh 1
▁1800 1
▁downgraded 1
▁disturbance 1
▁brakes 1
▁perimeter 1
tered 1
▁compounds 1
▁heightened 1
▁stimulate 1
▁spectacle 1
flight 1
▁strap 1
▁traction 1
▁aj 1
▁carey 1
▁tyson 1
▁necklace 1
▁spicer 1
▁jos 1
fit 1
mod 1
hem 1
▁upright 1
scoring 1
▁procurement 1
anta 1
▁uma 1
▁surrendered 1
▁metrics 1
▁ivy 1
▁offended 1
▁plunge 1
▁exempt 1
▁nolan 1
▁infinity 1
iga 1
▁ethereum 1
▁staple 1
▁visas 1
▁trot 1
▁neg 1
▁harmon 1
▁lancaster 1
\ 1
▁viewer 1
bird 1
▁sized 1
▁breitbart 1
▁dictate 1
▁gomez 1
tell 1
▁pleading 1
▁sensible 1
▁temp 1
▁pools 1
coming 1
▁abuses 1
▁brunswick 1
left 1
▁une 1
▁discharged 1
▁rou 1
fil 1
▁hun 1
▁bankers 1
▁1935 1
▁cruelty 1
▁excuses 1
▁cracking 1
▁inconsistent 1
▁jor 1
▁': 1
▁evaluated 1
▁satellites 1
▁fuller 1
▁neglected 1
▁fumble 1
▁aboriginal 1
▁granddaughter 1
▁similarities 1
▁nets 1
▁consortium 1
▁wizards 1
▁ceremonies 1
▁strengths 1
▁plaque 1
▁comcast 1
▁modes 1
▁owens 1
▁decorations 1
▁kanye 1
▁alerted 1
ics 1
▁£4 1
▁vip 1
language 1
▁downhill 1
▁malware 1
uki 1
▁rewarding 1
▁attain 1
▁envoy 1
times 1
oph 1
▁guessing 1
▁scales 1
▁adolescent 1
ncia 1
▁*** 1
▁103 1
▁settlers 1
pla 1
▁mona 1
▁vanilla 1
▁accessing 1
▁cory 1
▁ordeal 1
▁electron 1
▁blows 1
▁woodland 1
▁dawson 1
▁angles 1
▁spacex 1
▁exemption 1
▁brooke 1
chel 1
▁extremists 1
▁apprentice 1
▁cod 1
.70 1
▁ample 1
▁ribs 1
▁misses 1
▁contestants 1
quest 1
▁relentless 1
▁blizzard 1
▁promoter 1
▁notre 1
▁vaccination 1
▁claw 1
▁gale 1
print 1
▁wol 1
▁reaffirmed 1
▁gru 1
▁tearing 1
▁reboot 1
▁adjusting 1
н 1
▁elon 1
▁gymnastics 1
▁shoots 1
▁kingston 1
▁catalan 1
uh 1
▁reliability 1
▁neutrality 1
▁autonomy 1
bor 1
▁unfold 1
▁penal 1
sports 1
▁cybersecurity 1
▁ultrasound 1
▁rei 1
dade 1
▁grit 1
▁2-2 1
▁bau 1
▁blink 1
▁ple 1
iq 1
▁optimal 1
▁voyage 1
try 1
▁roberto 1
▁chatter 1
▁vinyl 1
▁fracture 1
▁archer 1
▁typing 1
▁hinted 1
▁tanker 1
semitism 1
▁helpless 1
▁capsule 1
inski 1
▁bac 1
dl 1
▁cellular 1
▁theoretical 1
▁np 1
black 1
▁imperative 1
▁rahul 1
ž 1
▁sins 1
▁scripture 1
▁counselor 1
▁bloggers 1
▁televised 1
▁photographed 1
▁captive 1
▁assurance 1
▁nav 1
▁refresh 1
.90 1
▁surprises 1
▁intentional 1
growing 1
jack 1
▁query 1
walk 1
▁adhere 1
▁freaking 1
▁zuma 1
▁strengthened 1
▁kap 1
▁robbie 1
▁106 1
▁seizure 1
▁gpu 1
▁lime 1
count 1
▁smarter 1
▁embracing 1
▁obscure 1
▁3.2 1
▁reopened 1
vor 1
▁175 1
▁maximize 1
▁sergio 1
▁convoy 1
▁hemp 1
bha 1
▁cloudy 1
▁rhp 1
▁asserted 1
▁tate 1
▁southwestern 1
▁standpoint 1
▁darwin 1
▁offenses 1
gard 1
▁hugo 1
▁freezer 1
▁clone 1
▁selfie 1
▁mariners 1
yon 1
▁jude 1
▁youngsters 1
shed 1
vil 1
▁titan 1
▁tsunami 1
▁regina 1
pay 1
lent 1
▁endorse 1
enter 1
▁shaken 1
▁hottest 1
▁mik 1
▁feeds 1
ndra 1
▁jumps 1
▁plague 1
▁tasting 1
▁nee 1
:30 1
▁princeton 1
▁genome 1
▁ceased 1
▁passer 1
▁rigorous 1
▁rubbing 1
ency 1
▁notices 1
▁sears 1
▁stefan 1
▁sg 1
▁contenders 1
ried 1
▁31- 1
▁richards 1
▁upheld 1
▁clergy 1
▁minerals 1
▁edgar 1
jit 1
ogen 1
▁ramos 1
▁antique 1
▁defines 1
▁patio 1
▁112 1
▁scouting 1
suit 1
gling 1
▁sickness 1
▁lame 1
▁troop 1
▁dep 1
▁homelessness 1
▁incomplete 1
▁sig 1
▁feather 1
▁condolences 1
tl 1
▁stud 1
▁recruits 1
▁foil 1
▁£5 1
eem 1
▁rigid 1
osh 1
▁essex 1
▁1,200 1
▁4-2 1
▁disadvantage 1
▁boosting 1
▁milli 1
▁chant 1
▁communicating 1
▁carb 1
▁ned 1
▁stacked 1
▁nadal 1
ي 1
▁babe 1
‐ 1
▁fowler 1
▁proxy 1
ić 1
▁sens 1
series 1
▁booker 1
▁33- 1
▁dilemma 1
▁tanzania 1
▁attribute 1
▁halo 1
ifer 1
▁drills 1
▁garment 1
paid 1
▁parkland 1
▁flavour 1
▁abuja 1
< 1
bad 1
rf 1
organ 1
fort 1
▁dans 1
unit 1
▁humane 1
▁thief 1
▁flashed 1
▁chew 1
▁shoved 1
▁scotia 1
▁islanders 1
▁milton 1
▁bengals 1
▁bach 1
▁2025 1
▁swipe 1
▁relates 1
▁wardrobe 1
stat 1
lation 1
▁geography 1
▁respects 1
▁constable 1
▁katy 1
▁objections 1
▁peters 1
▁irony 1
▁nikki 1
▁bruno 1
▁surged 1
cious 1
▁dipped 1
▁subpoena 1
▁pruitt 1
rington 1
focused 1
▁sne 1
▁poo 1
saving 1
▁harden 1
▁responsive 1
▁misery 1
▁erected 1
▁urine 1
▁boyd 1
▁whales 1
▁stems 1
▁sticky 1
▁trader 1
▁shortages 1
nas 1
▁)." 1
▁unwilling 1
ime 1
▁noticing 1
▁famed 1
mari 1
▁beverages 1
cie 1
▁staples 1
▁ravi 1
ager 1
▁observing 1
dog 1
▁mapping 1
▁applause 1
ws 1
▁url 1
▁negotiation 1
▁railways 1
dem 1
} 1
▁arlington 1
▁demise 1
▁reel 1
▁developmental 1
beck 1
bla 1
▁pike 1
jnë 1
▁ecuador 1
▁aviv 1
▁toured 1
▁simpler 1
▁wie 1
rak 1
▁owning 1
▁roc 1
▁forefront 1
nation 1
▁compilation 1
▁dispatched 1
▁fern 1
▁ein 1
▁shipments 1
▁pea 1
▁felix 1
▁resilience 1
▁courtney 1
rine 1
▁accuse 1
▁wink 1
▁disturbed 1
▁dye 1
▁wong 1
▁forums 1
▁tempted 1
▁classrooms 1
ân 1
▁aberdeen 1
enburg 1
▁therapeutic 1
▁traced 1
▁misuse 1
); 1
▁cctv 1
▁fuss 1
▁tack 1
▁mistaken 1
▁snowden 1
▁108 1
▁congestion 1
▁smoked 1
▁rhodes 1
lib 1
▁activate 1
ight 1
▁flo 1
▁undertake 1
clu 1
▁synagogue 1
▁gentlemen 1
ça 1
▁drip 1
▁paddle 1
▁refrigerator 1
▁peaks 1
▁merge 1
▁whiskey 1
▁melted 1
▁bakery 1
string 1
▁reopen 1
▁ivory 1
▁replies 1
▁balancing 1
▁moisture 1
▁sonic 1
▁armour 1
▁vaccines 1
▁lingering 1
▁illicit 1
▁hezbollah 1
▁panther 1
▁arbitrary 1
▁wedge 1
▁cowboy 1
▁standout 1
▁ripple 1
glo 1
▁rv 1
▁bour 1
▁illustration 1
▁trajectory 1
▁prosecuted 1
▁whi 1
jay 1
▁acknowledging 1
▁conferences 1
▁georgetown 1
product 1
▁icc 1
ht 1
▁pokemon 1
▁pairing 1
▁mot 1
▁specially 1
▁prepares 1
▁maya 1
▁digit 1
▁shaun 1
▁limbs 1
▁restroom 1
ggs 1
▁chord 1
▁innovations 1
▁torres 1
▁winding 1
▁headphones 1
▁popping 1
▁tighter 1
▁maxwell 1
▁armenia 1
▁biography 1
▁guiding 1
▁homosexual 1
▁tunnels 1
▁prints 1
▁contingent 1
▁demonstrating 1
▁ingredient 1
▁unpaid 1
▁hyde 1
▁flare 1
▁kathleen 1
▁impaired 1
▁screams 1
▁bikini 1
▁assange 1
▁churchill 1
▁academics 1
▁unfamiliar 1
▁semiconductor 1
▁ramirez 1
▁dnc 1
▁elm 1
▁drastically 1
dimensional 1
▁zack 1
▁bluetooth 1
▁definitive 1
moto 1
▁gc 1
▁prom 1
▁7.5 1
▁mé 1
▁energetic 1
though 1
▁closures 1
▁harley 1
▁crust 1
▁manipulate 1
▁rivera 1
▁ew 1
▁christina 1
▁smells 1
▁proprietary 1
▁stamps 1
comp 1
▁costing 1
▁metallic 1
aver 1
▁wenger 1
▁anton 1
▁landlord 1
▁liking 1
acy 1
▁tapping 1
▁proposing 1
▁rocking 1
▁setback 1
▁competent 1
▁bye 1
▁rie 1
ended 1
▁sailed 1
rel 1
▁zhang 1
▁loft 1
▁serie 1
▁shaping 1
▁accidental 1
▁bunny 1
hoe 1
▁yay 1
▁uranium 1
ination 1
heat 1
sided 1
▁employs 1
▁easing 1
▁melania 1
xa 1
▁contentious 1
▁haz 1
▁impulse 1
▁bluff 1
▁canberra 1
zh 1
▁milo 1
▁bargaining 1
gno 1
ider 1
▁grenade 1
▁vegetarian 1
▁molecules 1
▁voluntarily 1
▁monuments 1
▁tempo 1
▁oo 1
▁nielsen 1
▁distract 1
pon 1
▁digits 1
▁lahore 1
▁alison 1
▁scanner 1
▁hin 1
iu 1
▁raining 1
▁danielle 1
▁scu 1
▁autopsy 1
▁chili 1
lev 1
▁elders 1
break 1
▁enzyme 1
▁hitter 1
ender 1
▁gst 1
▁isaiah 1
▁denis 1
▁hugs 1
▁revision 1
▁macdonald 1
▁hc 1
▁grabs 1
goal 1
▁cul 1
▁blond 1
▁eased 1
▁lc 1
▁suffers 1
▁foundations 1
▁kendall 1
strom 1
▁enroll 1
▁merc 1
▁fathers 1
unk 1
serving 1
▁phenomenal 1
▁fletcher 1
▁structured 1
▁beetle 1
▁arcade 1
▁slowdown 1
▁mourn 1
▁hitch 1
ode 1
uta 1
▁plead 1
▁displaying 1
▁crushing 1
amba 1
dler 1
▁legalization 1
▁enhancement 1
▁walton 1
ete 1
▁taller 1
▁pir 1
▁arose 1
▁persecution 1
▁stroll 1
▁discern 1
▁1932 1
▁cot 1
▁resisted 1
▁pak 1
▁rotten 1
▁jae 1
▁garnered 1
▁mana 1
▁extinction 1
▁tasted 1
▁cyprus 1
▁wicket 1
fight 1
▁declines 1
▁weaken 1
▁storytelling 1
▁refined 1
▁loc 1
▁pinned 1
▁1910 1
▁yar 1
gl 1
▁tristan 1
▁skiing 1
▁thriving 1
▁mimic 1
▁hb 1
▁supernatural 1
▁reit 1
▁upwards 1
▁conte 1
▁karachi 1
oko 1
got 1
л 1
▁pumped 1
egan 1
▁divisive 1
▁bonuses 1
open 1
▁venice 1
▁delegate 1
▁rbis 1
▁paulo 1
▁tiffany 1
▁arbitration 1
▁icy 1
▁surgeries 1
▁isle 1
▁certificates 1
▁affiliation 1
▁conceived 1
▁ankara 1
▁squash 1
▁tas 1
▁generator 1
-40 1
▁enforced 1
▁hag 1
▁disco 1
▁respectful 1
▁kickstarter 1
.18 1
▁giveaway 1
▁ellie 1
ologi 1
lander 1
м 1
▁elf 1
▁twilight 1
cam 1
▁bahrain 1
wei 1
paul 1
▁wildfires 1
▁inquiries 1
green 1
▁neural 1
,400 1
por 1
uth 1
▁factions 1
▁expelled 1
▁pavilion 1
▁sq 1
▁influx 1
▁joking 1
lac 1
▁privileged 1
watt 1
▁piled 1
▁zak 1
▁weighs 1
▁weaknesses 1
▁jorge 1
▁cornell 1
▁1928 1
▁mustang 1
▁destined 1
▁romanian 1
lake 1
▁budgets 1
▁negatively 1
▁meddling 1
▁jew 1
▁sparks 1
▁bh 1
▁lecturer 1
▁tubes 1
▁mesa 1
street 1
▁roland 1
▁floated 1
central 1
▁crafted 1
▁playback 1
▁analyses 1
nard 1
▁wp 1
▁maternal 1
▁yearly 1
▁inland 1
▁debts 1
▁elvis 1
▁trooper 1
▁projection 1
▁220 1
▁discounts 1
▁masks 1
▁premature 1
▁coats 1
food 1
▁curled 1
▁sideline 1
▁dru 1
▁knives 1
▁ecb 1
▁recognizes 1
▁socialism 1
stru 1
▁unpopular 1
▁dro 1
▁discusses 1
▁mattress 1
▁leftist 1
web 1
comb 1
▁plagued 1
▁ramsey 1
▁mora 1
▁unpleasant 1
▁standings 1
▁bells 1
▁touted 1
nica 1
scng 1
growth 1
▁sufficiently 1
▁pensions 1
▁tract 1
▁emergence 1
▁kla 1
▁softball 1
▁entail 1
▁skipped 1
▁criticize 1
▁noticeable 1
▁8,000 1
div 1
▁muk 1
▁crater 1
▁rwanda 1
▁pity 1
▁speedway 1
▁peach 1
▁blacks 1
rm 1
▁announcements 1
▁drawings 1
▁taunt 1
▁rockies 1
▁exclusion 1
hey 1
▁sunglasses 1
▁beckham 1
` 1
▁spilled 1
▁separating 1
▁lum 1
▁fortress 1
▁hou 1
going 1
leigh 1
▁statues 1
▁paso 1
▁payne 1
▁hints 1
working 1
▁australians 1
▁cloak 1
▁flashing 1
▁toughest 1
▁hicks 1
▁varies 1
▁bunker 1
rag 1
▁contributors 1
▁seafood 1
▁piper 1
▁manifesto 1
▁admired 1
▁naive 1
▁omni 1
▁debated 1
▁missionary 1
▁contaminated 1
▁savannah 1
odo 1
▁sermon 1
▁downloaded 1
▁heartbeat 1
built 1
kowski 1
▁nickel 1
▁trilogy 1
▁antenna 1
ño 1
▁nm 1
▁peacefully 1
▁tangible 1
trip 1
▁exited 1
▁millennium 1
▁3.1 1
▁airways 1
▁insulin 1
▁thesis 1
▁chandler 1
▁candidacy 1
▁bites 1
▁bats 1
▁abortions 1
▁remake 1
▁sunderland 1
▁cylinder 1
▁thu 1
▁prolific 1
▁highland 1
▁lever 1
▁overseeing 1
▁paycheck 1
▁scoreless 1
▁saa 1
zier 1
vir 1
▁katrina 1
oso 1
▁deferred 1
▁tran 1
▁pediatric 1
▁hansen 1
wl 1
▁jug 1
▁cuisine 1
▁protector 1
▁mcc 1
▁dd 1
▁tasty 1
kit 1
▁salute 1
▁needles 1
▁rebuilt 1
yama 1
▁eruption 1
▁volunteered 1
user 1
▁authorization 1
▁fingerprint 1
▁reich 1
▁hale 1
▁bids 1
▁educators 1
▁vil 1
▁kho 1
▁singled 1
▁109 1
▁therapeutics 1
▁ensured 1
▁750 1
keeper 1
▁nope 1
▁schedules 1
main 1
▁conductor 1
▁stash 1
▁registry 1
▁boe 1
interest 1
▁kuwait 1
▁apparel 1
▁groom 1
▁logs 1
▁modeling 1
▁jerome 1
▁2016-17 1
▁shale 1
bio 1
▁variants 1
▁exhibited 1
▁tp 1
▁josé 1
mount 1
▁cyclists 1
▁bets 1
▁crib 1
▁nigel 1
▁delightful 1
▁halls 1
rov 1
▁troll 1
▁bodily 1
▁aleppo 1
▁covenant 1
leading 1
▁psychiatrist 1
exp 1
▁tat 1
▁nausea 1
▁stool 1
▁hospice 1
▁realities 1
▁coordinate 1
▁blades 1
▁constructive 1
▁violet 1
▁irrelevant 1
▁itv 1
▁const 1
ump 1
▁exploited 1
▁45- 1
▁vit 1
▁razor 1
▁gus 1
▁bod 1
▁discretion 1
▁selecting 1
:50 1
▁stumble 1
▁sway 1
ët 1
▁apex 1
reilly 1
▁quantities 1
gene 1
▁impending 1
▁spotify 1
lai 1
▁accompany 1
▁spectators 1
▁behold 1
▁conform 1
tica 1
▁(, 1
▁') 1
rra 1
▁bulletin 1
▁jpmorgan 1
▁velocity 1
▁attractions 1
▁saf 1
▁36- 1
▁benedict 1
.65 1
▁outspoken 1
▁monopoly 1
▁professors 1
▁handler 1
cle 1
▁rite 1
▁niagara 1
▁eng 1
ition 1
▁surfaces 1
▁phantom 1
▁leaking 1
▁worm 1
ivity 1
▁linkedin 1
▁melting 1
▁bai 1
▁oppression 1
▁lim 1
▁stalin 1
▁nah 1
▁sz 1
▁underperform 1
▁gallon 1
▁evolutionary 1
▁whipped 1
▁swa 1
nder 1
▁deepest 1
▁dl 1
▁heartbreaking 1
mbi 1
▁predicting 1
▁pel 1
▁más 1
▁unlocked 1
liner 1
▁― 1
▁richest 1
▁tutor 1
▁mourning 1
▁1916 1
▁pens 1
▁shak 1
▁hesitate 1
▁bollywood 1
▁religions 1
▁professionally 1
▁accustomed 1
colored 1
poli 1
▁monaco 1
pathy 1
▁wired 1
▁temptation 1
▁vivid 1
▁understandable 1
▁avatar 1
▁damon 1
▁homers 1
▁1922 1
▁newark 1
▁gua 1
▁ink 1
▁overthrow 1
▁parental 1
▁astonishing 1
▁basics 1
▁brighter 1
▁tile 1
▁shells 1
▁thou 1
▁sidelined 1
aku 1
▁alec 1
written 1
▁otto 1
▁perceive 1
▁maturity 1
ibly 1
hwa 1
▁intercepted 1
▁cbd 1
nine 1
record 1
▁russ 1
▁guatemala 1
▁headquartered 1
▁rudd 1
▁pha 1
▁kapoor 1
▁infectious 1
dev 1
▁salem 1
▁cv 1
▁clinch 1
▁git 1
▁că 1
▁patriot 1
▁restoring 1
▁redemption 1
▁logging 1
▁kickoff 1
▁uttar 1
double 1
▁tug 1
▁tweeting 1
▁songwriter 1
▁undertaking 1
▁colonies 1
▁coca 1
▁kaepernick 1
kka 1
▁pag 1
▁metaphor 1
▁residency 1
▁uphold 1
▁stro 1
fed 1
▁uncover 1
▁orioles 1
▁hurdle 1
▁fertility 1
▁poke 1
▁cables 1
▁modules 1
hil 1
▁wb 1
▁chemo 1
tun 1
▁onion 1
▁3.6 1
▁stockholm 1
▁lineman 1
▁begged 1
▁dungeon 1
▁fulfilled 1
▁singers 1
▁4:30 1
▁34- 1
▁preacher 1
horse 1
▁capita 1
▁bailout 1
writer 1
▁transcend 1
▁encryption 1
▁tracker 1
▁lodged 1
▁positioning 1
love 1
▁depths 1
▁hates 1
▁jedi 1
▁escorted 1
▁dictionary 1
real 1
cup 1
▁fishermen 1
figure 1
coat 1
▁weaver 1
▁gee 1
▁taxation 1
▁peck 1
▁standoff 1
▁mesh 1
▁announces 1
▁plasma 1
▁malta 1
▁blitz 1
▁promotes 1
▁builder 1
▁lea 1
▁venus 1
▁authoritarian 1
▁porsche 1
▁offline 1
/1 1
logic 1
themed 1
▁lenses 1
▁shri 1
wr 1
▁rita 1
▁compensate 1
▁burr 1
▁interrogation 1
▁stylish 1
▁artifacts 1
▁cheers 1
▁7,000 1
guard 1
▁gir 1
▁ww 1
▁bala 1
system 1
trick 1
▁healed 1
▁airbus 1
▁saul 1
▁litre 1
▁cardiac 1
▁miniature 1
▁gaga 1
speaking 1
▁collegiate 1
▁pero 1
▁secondly 1
▁1924 1
sensitive 1
▁magistrates 1
▁suing 1
▁chau 1
▁damned 1
▁belongings 1
▁goodwill 1
esa 1
journal 1
▁kenyan 1
▁1915 1
anne 1
▁thru 1
▁respiratory 1
hawk 1
▁salvage 1
▁mata 1
kon 1
tler 1
onia 1
▁rica 1
▁bryce 1
▁ringing 1
nen 1
wife 1
▁feathers 1
▁expresses 1
.04 1
stroke 1
▁referral 1
▁trainers 1
▁maharashtra 1
▁rink 1
rac 1
▁hurdles 1
kick 1
▁melody 1
metric 1
aux 1
▁clearer 1
▁bouncing 1
▁piss 1
▁ngo 1
▁valencia 1
å 1
▁landslide 1
▁pho 1
▁fulfilling 1
▁avery 1
player 1
root 1
▁forge 1
▁nev 1
▁wasting 1
▁marlins 1
▁pads 1
▁240 1
▁brokers 1
▁accountant 1
▁listeners 1
▁pablo 1
▁iot 1
▁loser 1
apa 1
▁manslaughter 1
▁defenseman 1
▁atlas 1
▁dialect 1
▁crate 1
▁commentator 1
▁sailors 1
▁takeaway 1
fix 1
▁daisy 1
▁injunction 1
▁reinforced 1
etz 1
▁nassar 1
▁prevalent 1
▁recap 1
oun 1
▁flush 1
▁organizer 1
▁potty 1
▁107 1
ores 1
▁traces 1
▁kali 1
▁fel 1
▁3.3 1
▁amusement 1
▁08 1
▁jinping 1
▁predator 1
▁135 1
▁resistant 1
▁wii 1
▁rao 1
dig 1
▁finnish 1
▁deli 1
▁glue 1
▁dre 1
▁hindi 1
▁maz 1
▁barbecue 1
▁exhibits 1
▁verification 1
▁diapers 1
▁allan 1
▁ç 1
▁aqua 1
▁tightening 1
proof 1
▁drained 1
▁aaa 1
▁hoy 1
▁kernel 1
▁interventions 1
▁coffin 1
rist 1
▁funk 1
▁150,000 1
▁advocating 1
gna 1
▁subsidiaries 1
▁clamp 1
400 1
▁pb 1
gold 1
▁′′ 1
▁beatles 1
ident 1
▁tsa 1
▁bashar 1
▁groove 1
hua 1
▁annualized 1
▁tokens 1
▁3-4 1
▁mechanic 1
▁motley 1
why 1
▁velvet 1
▁johannesburg 1
▁1927 1
pol 1
▁denounced 1
▁pasture 1
▁fearful 1
▁113 1
▁lengths 1
▁outskirts 1
▁phillies 1
▁cheryl 1
itch 1
▁breakout 1
▁unstable 1
▁12,000 1
▁vc 1
shoot 1
nya 1
▁accepts 1
▁dominican 1
▁baylor 1
▁outward 1
▁bumper 1
▁vor 1
▁frowned 1
▁mayo 1
▁updating 1
▁1912 1
▁snakes 1
anza 1
▁fx 1
▁preserving 1
▁blueprint 1
▁quoting 1
▁jupiter 1
▁humour 1
/10 1
▁shelby 1
▁elsa 1
▁fiery 1
still 1
▁abnormal 1
▁freddie 1
▁dang 1
ural 1
▁tapes 1
ect 1
▁luna 1
▁prioritize 1
science 1
▁hazel 1
▁thrilling 1
▁riots 1
plane 1
▁cardboard 1
ن 1
▁dustin 1
▁overturn 1
▁enact 1
▁oddly 1
▁myriad 1
▁calmly 1
kir 1
▁collaborate 1
lough 1
▁1931 1
▁ال 1
▁plateau 1
▁ghosts 1
▁cub 1
▁undefeated 1
▁gradual 1
▁hesitant 1
▁cis 1
any 1
.85 1
pit 1
encia 1
▁photographers 1
▁goose 1
▁zoning 1
national 1
▁subjective 1
▁tw 1
bir 1
▁solicitor 1
▁gasp 1
▁kp 1
▁pall 1
▁daytime 1
▁avail 1
ues 1
your 1
nea 1
▁pumps 1
▁bowls 1
▁nico 1
ony 1
▁comparisons 1
▁caste 1
▁prohibit 1
hou 1
▁airing 1
▁pyeongchang 1
▁fisheries 1
alla 1
▁inflammation 1
connor 1
▁nil 1
▁sperm 1
▁ignorant 1
▁researching 1
▁kabul 1
cco 1
ake 1
bh 1
nj 1
▁contamination 1
▁relieve 1
▁aspirations 1
▁weber 1
▁ska 1
its 1
▁abusing 1
▁60,000 1
▁syrup 1
▁vijay 1
▁dw 1
▁indefinitely 1
▁bren 1
▁assessments 1
▁mole 1
lim 1
▁forged 1
▁combines 1
▁stealth 1
▁haram 1
▁dwelling 1
ame 1
▁jonas 1
▁nina 1
▁mba 1
▁herman 1
▁concession 1
▁pins 1
▁lavish 1
▁vein 1
▁cleanup 1
▁dusty 1
eno 1
▁3.4 1
▁entirety 1
asse 1
▁markers 1
▁injuring 1
▁kt 1
▁remix 1
▁scripts 1
fact 1
▁vigil 1
stin 1
▁mck 1
▁ola 1
▁pounding 1
mber 1
▁systemic 1
▁grunt 1
▁shores 1
inspired 1
▁allegiance 1
ald 1
▁mirrors 1
▁asshole 1
▁powerhouse 1
▁filters 1
▁lively 1
▁aclu 1
▁coma 1
▁comprises 1
▁nationalism 1
▁reductions 1
▁1921 1
semitic 1
▁phases 1
▁lebanese 1
▁scarf 1
▁advocated 1
▁lng 1
ides 1
▁strokes 1
▁batters 1
▁cain 1
▁teased 1
▁kru 1
▁lax 1
▁alas 1
▁sincere 1
▁auditorium 1
▁1,4 1
▁slew 1
▁choke 1
▁slides 1
▁liber 1
▁'" 1
▁courtyard 1
▁bangkok 1
▁lima 1
▁severity 1
▁recess 1
▁ks 1
▁cheered 1
▁whereabouts 1
▁bully 1
▁1500 1
▁destroyer 1
▁ascend 1
▁ruff 1
▁evaluating 1
▁smack 1
▁versatile 1
9.99 1
▁rooftop 1
▁prim 1
▁soaked 1
▁nim 1
▁enlisted 1
▁relegation 1
▁coincide 1
▁avid 1
▁indies 1
▁harassed 1
▁rumor 1
have 1
▁builders 1
needed 1
▁firefighter 1
ache 1
▁lithium 1
▁humidity 1
▁exercising 1
tig 1
▁premiership 1
▁byron 1
centric 1
▁fascinated 1
▁comm 1
▁granite 1
▁noises 1
▁blockade 1
▁reps 1
▁thur 1
▁communal 1
▁accomplishment 1
▁utilized 1
▁acquaintance 1
▁pathetic 1
▁viewpoint 1
▁directory 1
cci 1
▁disbelief 1
▁prevail 1
▁adequately 1
▁descriptions 1
▁uruguay 1
▁reigning 1
▁inaccurate 1
én 1
▁biased 1
▁mri 1
azi 1
▁spear 1
▁μ 1
▁appliances 1
▁festivities 1
kë 1
▁gazette 1
▁continuation 1
▁circulating 1
▁mankind 1
▁rumble 1
▁precinct 1
▁sands 1
liter 1
para 1
▁undisclosed 1
▁selective 1
▁becky 1
▁alignment 1
mag 1
▁jd 1
ground 1
▁1925 1
▁hydra 1
▁geological 1
▁cavalry 1
▁arrivals 1
nah 1
▁friction 1
chair 1
▁cambodia 1
▁layup 1
▁perspectives 1
▁asthma 1
▁fucked 1
▁retaining 1
▁gad 1
▁horns 1
mina 1
worker 1
▁admissions 1
▁inception 1
▁ira 1
τ 1
▁windy 1
▁infants 1
▁pint 1
▁savior 1
▁miner 1
▁diamonds 1
db 1
▁€1 1
.16 1
▁sunk 1
▁discourage 1
▁drowned 1
▁trey 1
▁ley 1
▁griffith 1
▁censorship 1
▁kelley 1
▁descendants 1
▁nec 1
▁racer 1
▁proclaimed 1
uti 1
▁transmitted 1
▁hawaiian 1
▁monastery 1
rud 1
▁recon 1
▁bliss 1
arch 1
▁msnbc 1
lah 1
wel 1
omi 1
▁scholarships 1
.17 1
▁doubling 1
▁phrases 1
nazi 1
▁400,000 1
▁remedy 1
storm 1
▁consultants 1
▁cj 1
▁kl 1
▁crises 1
▁bushes 1
▁gwen 1
▁cautioned 1
▁homosexuality 1
▁branding 1
▁hierarchy 1
▁orchard 1
▁tow 1
▁meds 1
iger 1
ckle 1
▁nord 1
▁ecological 1
▁mates 1
▁accusation 1
▁stride 1
▁oceans 1
▁stella 1
▁prevents 1
▁ministries 1
▁identifies 1
▁whitney 1
▁edmund 1
tner 1
▁wrinkle 1
▁criticizing 1
▁drowning 1
rino 1
▁termination 1
▁undo 1
something 1
▁royalty 1
▁ranges 1
▁ideally 1
▁revived 1
▁assessing 1
▁culprit 1
▁stormed 1
▁extremism 1
ride 1
▁kang 1
▁ceasefire 1
▁comforting 1
▁vineyard 1
fired 1
▁randall 1
ensi 1
▁doses 1
▁induced 1
▁crimea 1
▁phi 1
▁decor 1
▁terminated 1
▁briefed 1
▁meadows 1
▁vain 1
▁sock 1
▁classics 1
▁patriotic 1
founded 1
oul 1
rz 1
▁casually 1
▁gina 1
ulator 1
▁kiev 1
▁backers 1
▁libyan 1
▁addicted 1
text 1
▁dayton 1
rol 1
▁culinary 1
▁odor 1
▁catastrophe 1
▁disrespect 1
▁hastings 1
▁microwave 1
▁sag 1
wy 1
▁apples 1
▁wires 1
▁gareth 1
endra 1
▁killers 1
▁lender 1
▁sophia 1
▁cran 1
▁palo 1
▁retention 1
▁plaintiff 1
▁jamal 1
▁whopping 1
▁escaping 1
ern 1
▁aap 1
▁morality 1
deal 1
vision 1
▁sorted 1
▁teresa 1
lem 1
▁nic 1
▁quant 1
▁gallons 1
▁soaring 1
▁tun 1
▁gupta 1
sheet 1
▁dumping 1
▁nz 1
▁provisional 1
▁enthusiasts 1
▁responds 1
▁transforming 1
▁commenced 1
▁ninja 1
▁2.9 1
▁dolls 1
▁peculiar 1
▁chores 1
▁metoo 1
▁gerard 1
▁collided 1
▁reminiscent 1
▁guardiola 1
▁foe 1
▁maze 1
▁??? 1
cycle 1
▁warsaw 1
▁inducted 1
▁mobil 1
scape 1
df 1
▁rory 1
▁notch 1
▁disrupted 1
▁patriarch 1
▁ironic 1
▁exceptionally 1
▁mina 1
▁kab 1
▁protocols 1
▁brawl 1
▁spam 1
.14 1
▁verses 1
▁lara 1
▁fireplace 1
▁donovan 1
ija 1
▁rac 1
eti 1
▁peri 1
som 1
ggle 1
▁falsely 1
▁finalists 1
▁conor 1
▁incremental 1
▁torment 1
▁armies 1
▁museums 1
▁%), 1
▁sensational 1
▁jal 1
▁staircase 1
▁pow 1
flu 1
▁desirable 1
▁bookstore 1
▁anyways 1
▁narrowed 1
▁strips 1
▁parkway 1
▁maurice 1
▁invasive 1
▁correspondence 1
▁1926 1
▁cites 1
ional 1
▁prostitution 1
▁surpassed 1
▁hazardous 1
▁dots 1
▁troopers 1
▁oversees 1
▁muse 1
▁punches 1
▁goaltender 1
▁stitch 1
▁meltdown 1
▁scheduling 1
▁naomi 1
▁paula 1
▁robotics 1
▁shirley 1
▁granting 1
▁fixes 1
▁1923 1
▁rodney 1
▁endurance 1
▁compartment 1
▁correctional 1
▁pageant 1
▁marx 1
americans 1
▁cakes 1
▁outfielder 1
▁riyadh 1
▁strangely 1
rest 1
▁avi 1
▁elle 1
▁hefty 1
▁stocking 1
▁plo 1
xx 1
▁shrimp 1
.12 1
kal 1
▁piles 1
▁reversal 1
▁hawkins 1
angle 1
▁schi 1
▁resilient 1
▁envision 1
▁ceramic 1
▁accuser 1
amp 1
raw 1
▁vicinity 1
▁feminism 1
▁fearing 1
▁crosby 1
▁crank 1
▁activation 1
▁disconnect 1
▁escalating 1
cou 1
▁persuaded 1
▁believers 1
▁exhaust 1
▁perkins 1
و 1
▁woes 1
▁klopp 1
▁terri 1
▁splitting 1
▁daring 1
▁tmz 1
▁binary 1
▁perpetrators 1
▁stephens 1
▁livelihood 1
▁sprawling 1
▁plymouth 1
mara 1
▁aided 1
▁doyle 1
▁leah 1
thal 1
▁assaults 1
goers 1
▁swollen 1
▁stronghold 1
▁possessing 1
▁chilling 1
▁guardians 1
cri 1
haven 1
▁tata 1
▁carlson 1
▁abundant 1
▁oilers 1
▁brom 1
▁alto 1
▁archaeological 1
▁maternity 1
▁objection 1
▁screenplay 1
▁dissolved 1
▁indirect 1
bet 1
.67 1
facing 1
▁chow 1
▁lem 1
▁syl 1
▁allege 1
drop 1
fuel 1
▁evacuate 1
▁rampant 1
▁transferring 1
ugh 1
parent 1
▁slideshow 1
▁modify 1
▁crimson 1
▁texting 1
duty 1
▁shutout 1
▁motorsport 1
▁inserted 1
▁prosecute 1
▁.] 1
▁dortmund 1
▁nk 1
.28 1
▁divert 1
▁filmmakers 1
▁bracelet 1
▁loosen 1
▁noel 1
ichi 1
phon 1
▁...) 1
▁solicit 1
▁heavenly 1
tă 1
▁differential 1
▁mccoy 1
▁eternity 1
▁spar 1
.26 1
▁sleeves 1
▁paradox 1
▁sums 1
▁posture 1
▁gluten 1
▁niger 1
virus 1
▁cadet 1
▁fuji 1
▁moose 1
▁leigh 1
▁betrayed 1
▁purdue 1
▁ari 1
▁instability 1
▁motivate 1
▁tx 1
▁erie 1
▁varsity 1
▁sampling 1
lau 1
▁paved 1
▁celeb 1
▁elephants 1
▁assignments 1
stars 1
▁haha 1
▁hinge 1
▁salah 1
▁cubic 1
▁­ 1
ión 1
▁kle 1
mill 1
▁tenant 1
▁bedtime 1
athi 1
▁hamburg 1
▁barton 1
▁presentations 1
▁scanning 1
▁chal 1
▁palin 1
▁workouts 1
▁stereo 1
▁consolidation 1
▁bullshit 1
▁referenced 1
▁kindle 1
▁scandals 1
▁pagan 1
▁ping 1
▁laurie 1
д 1
▁lick 1
▁spr 1
▁vastly 1
▁sequences 1
▁ruthless 1
ienne 1
▁tighten 1
▁marriages 1
▁tuck 1
rium 1
▁analyzing 1
▁padres 1
▁vegetation 1
▁waiver 1
defense 1
▁barring 1
▁converting 1
▁irregular 1
▁robotic 1
▁rae 1
▁defensively 1
▁zombies 1
▁fascist 1
vac 1
▁cunningham 1
child 1
▁nicola 1
present 1
.33 1
▁inject 1
▁bronx 1
▁cheerful 1
ashi 1
▁restriction 1
▁drifted 1
▁sling 1
▁freestyle 1
▁goats 1
▁hormone 1
▁advertised 1
phi 1
▁spinal 1
.55 1
mul 1
▁smuggling 1
▁immortal 1
▁badger 1
▁locking 1
▁justices 1
▁overlap 1
▁genital 1
▁cog 1
rne 1
▁advertisers 1
▁legitimacy 1
zzi 1
▁engineered 1
▁marin 1
mil 1
▁detainees 1
iser 1
▁airbnb 1
▁swath 1
▁upgrading 1
▁banker 1
▁solitary 1
▁colo 1
lig 1
▁masterpiece 1
▁lectures 1
▁feminine 1
▁cane 1
▁drastic 1
▁homo 1
▁elijah 1
▁panda 1
ité 1
glass 1
▁staging 1
▁mais 1
erie 1
▁pearson 1
▁3.7 1
▁diploma 1
▁3.8 1
▁mori 1
him 1
▁polished 1
sell 1
▁prose 1
▁apr 1
▁pai 1
▁interval 1
rup 1
-27 1
▁tavern 1
mani 1
rv 1
circ 1
yk 1
▁yadav 1
▁policymakers 1
▁socio 1
▁camper 1
▁uncertainties 1
▁dat 1
cic 1
▁acceleration 1
▁greed 1
▁definite 1
▁intuitive 1
cz 1
hc 1
▁literal 1
▁organisers 1
▁tl 1
kim 1
▁middleton 1
▁bulgaria 1
▁jas 1
▁craving 1
▁ineffective 1
▁assemble 1
▁1890 1
▁conception 1
▁chatted 1
▁pillar 1
▁gases 1
у 1
▁coaster 1
▁governed 1
▁chuckled 1
▁translator 1
▁receipt 1
▁politic 1
▁disciplined 1
▁limb 1
▁indy 1
▁waitress 1
▁usher 1
hun 1
▁garrison 1
▁dalton 1
▁patents 1
▁mart 1
▁114 1
▁altercation 1
▁nana 1
2.00 1
▁laboratories 1
▁booster 1
▁tents 1
▁illustrate 1
vert 1
▁doomed 1
▁idle 1
▁gloria 1
▁neurons 1
▁emp 1
▁dane 1
▁camel 1
▁commune 1
▁commanders 1
▁veil 1
▁vogue 1
▁imran 1
▁collaborated 1
▁116 1
▁await 1
▁sak 1
▁fibre 1
stitu 1
▁essays 1
faced 1
▁diminished 1
▁statutory 1
▁ner 1
▁overlooking 1
▁promo 1
▁formidable 1
▁compassionate 1
▁austerity 1
▁nuggets 1
▁radi 1
▁iteration 1
sponsored 1
▁consulted 1
▁resisting 1
▁derrick 1
▁catholics 1
▁vanessa 1
▁bonnie 1
▁sten 1
shop 1
▁muddy 1
▁sniper 1
map 1
▁peasant 1
▁giggle 1
cop 1
▁sprout 1
▁editions 1
▁schultz 1
too 1
ت 1
▁empowerment 1
▁explosions 1
▁trousers 1
▁chemotherapy 1
▁cooperating 1
▁plight 1
▁procession 1
▁regrets 1
▁morph 1
lang 1
▁clicked 1
▁gestures 1
mad 1
▁indulge 1
▁owl 1
quin 1
▁ranged 1
▁cheque 1
▁rhino 1
▁stripes 1
▁expire 1
▁1913 1
▁waterfall 1
▁tamp 1
▁chevrolet 1
▁90- 1
▁realizes 1
▁multinational 1
▁amazingly 1
▁soybean 1
▁punching 1
▁fractured 1
▁circulated 1
▁hud 1
▁cosmic 1
▁mocking 1
▁depicting 1
▁kindly 1
▁supervisors 1
-28 1
john 1
▁sidney 1
▁disagreed 1
.11 1
▁curling 1
▁trait 1
▁orgasm 1
▁finalized 1
▁shim 1
▁1,5 1
▁chopped 1
▁exert 1
▁bankrupt 1
▁roses 1
▁incomes 1
▁somali 1
▁nay 1
▁raleigh 1
▁fraternity 1
▁regained 1
▁paste 1
▁havoc 1
▁bates 1
▁zam 1
▁fixtures 1
▁summon 1
dry 1
▁lore 1
▁icons 1
▁grilled 1
▁karnataka 1
bis 1
▁mh 1
▁repaired 1
▁partition 1
▁lobster 1
▁unauthorized 1
▁laurel 1
▁swelling 1
spot 1
▁secrecy 1
▁generates 1
▁nexus 1
ś 1
▁glo 1
▁replicate 1
▁facto 1
placed 1
▁cameroon 1
▁spoilers 1
bos 1
▁shrinking 1
▁germ 1
▁campaigned 1
▁enhancing 1
▁robe 1
:05 1
▁scrub 1
▁overlook 1
▁disruptive 1
▁reclaim 1
chain 1
▁11:30 1
▁witt 1
▁lastly 1
▁alta 1
▁scars 1
▁senses 1
jin 1
▁beneficiaries 1
▁chandra 1
р 1
▁bullish 1
▁kul 1
▁boutique 1
▁toilets 1
▁pratt 1
▁scramble 1
▁prank 1
▁200- 1
utter 1
▁raided 1
▁coyotes 1
▁wines 1
▁stereotypes 1
▁curator 1
▁donating 1
▁mnangagwa 1
▁visually 1
▁ousted 1
tip 1
factor 1
▁derive 1
▁09 1
▁ful 1
▁hostel 1
▁translates 1
▁polled 1
▁waterfront 1
rama 1
▁ensuing 1
▁cozy 1
▁meadow 1
▁outdated 1
▁earthquakes 1
▁primaries 1
▁bedrooms 1
▁forgetting 1
▁biologist 1
▁primitive 1
▁portrayal 1
▁companions 1
▁225 1
▁lub 1
oil 1
▁harp 1
ranking 1
▁pivot 1
▁analog 1
▁arn 1
nut 1
▁230 1
▁cohort 1
▁resemble 1
zia 1
▁sleepy 1
▁relegated 1
▁serbian 1
▁bubbles 1
▁unravel 1
cock 1
▁curves 1
▁intimidation 1
cate 1
▁sikh 1
▁blackberry 1
ί 1
▁aloud 1
holder 1
▁scots 1
imit 1
▁tho 1
fel 1
▁awoke 1
▁plugin 1
▁acknowledges 1
▁190 1
▁paradigm 1
▁threads 1
▁alleviate 1
▁daycare 1
▁4.2 1
▁6-0 1
▁repay 1
▁worthwhile 1
▁hussein 1
▁webster 1
▁rightly 1
▁dab 1
▁erase 1
,100 1
▁scrambled 1
▁kohli 1
▁1/3 1
berger 1
▁rejecting 1
▁condom 1
nzo 1
▁yorker 1
▁fiat 1
▁elliot 1
▁willis 1
.29 1
▁brenda 1
▁flores 1
▁omaha 1
nna 1
▁outlaw 1
▁sti 1
▁precipitation 1
▁doj 1
rack 1
.19 1
mass 1
▁soared 1
▁motives 1
▁betrayal 1
gp 1
.13 1
▁embarked 1
▁floral 1
▁gall 1
▁tunes 1
▁courier 1
▁vene 1
▁coating 1
▁hacker 1
esi 1
▁chooses 1
floor 1
▁nadu 1
▁messed 1
=" 1
grown 1
▁emanuel 1
▁shutter 1
▁raging 1
▁lav 1
▁nodes 1
▁broaden 1
ě 1
rif 1
nny 1
▁lords 1
issue 1
▁unleash 1
▁schwartz 1
▁landfill 1
▁mortar 1
ako 1
▁ante 1
▁violently 1
▁martyr 1
▁inputs 1
▁expenditures 1
▁mackenzie 1
▁ripe 1
▁seizures 1
▁pasadena 1
▁reconcile 1
▁mig 1
▁biting 1
isco 1
▁ling 1
▁contractions 1
▁vapor 1
▁hectares 1
▁buddha 1
▁breastfeeding 1
▁switches 1
▁wichita 1
▁reactor 1
▁luka 1
▁gl 1
▁.") 1
muslim 1
▁hoover 1
▁submissions 1
▁brat 1
▁pseudo 1
▁broom 1
▁adamant 1
▁° 1
▁kell 1
▁hulk 1
▁popcorn 1
ppy 1
▁sibling 1
▁booming 1
▁texted 1
▁rubbish 1
▁wesley 1
▁handset 1
▁foi 1
▁norton 1
▁plots 1
▁kad 1
▁crawling 1
▁disagreement 1
▁inspectors 1
▁travellers 1
▁5-0 1
▁lutheran 1
▁portraits 1
▁sioux 1
▁vive 1
atic 1
▁horrified 1
▁ounces 1
▁processors 1
▁hostility 1
▁distill 1
▁fatalities 1
▁gull 1
▁schneider 1
▁hound 1
qaeda 1
▁wand 1
.38 1
▁tiles 1
.08 1
▁oneplus 1
▁cbi 1
▁qaeda 1
▁militar 1
▁pon 1
▁specifications 1
▁masa 1
rush 1
js 1
▁herbs 1
▁baggage 1
friend 1
▁ugh 1
▁rave 1
setting 1
grove 1
▁dio 1
▁djokovic 1
▁boone 1
▁impatient 1
▁steward 1
▁birdie 1
▁amidst 1
▁cigar 1
▁mistress 1
▁fentanyl 1
▁1911 1
م 1
▁commend 1
▁buckle 1
▁trumpet 1
▁cardiovascular 1
$2 1
▁smo 1
pool 1
▁gardening 1
▁07 1
▁burg 1
mento 1
▁speculate 1
▁methodology 1
asia 1
▁reside 1
▁invaded 1
.06 1
▁buffet 1
▁extradition 1
▁sutton 1
▁sew 1
▁hayden 1
social 1
▁nik 1
▁nawaz 1
▁umpire 1
▁canoe 1
▁reacting 1
▁quiz 1
▁nypd 1
▁screwed 1
▁generosity 1
.36 1
▁progressives 1
▁scenery 1
dir 1
▁packet 1
emb 1
▁mandated 1
▁friendships 1
hab 1
▁37- 1
▁irrigation 1
▁protects 1
▁inferior 1
gri 1
▁canucks 1
bedroom 1
▁rooney 1
▁erosion 1
▁vanity 1
▁startled 1
▁dorothy 1
▁unavailable 1
▁grieving 1
hman 1
▁condemnation 1
▁145 1
▁divers 1
▁0.01 1
▁ming 1
▁graffiti 1
▁intensified 1
▁descend 1
▁notifications 1
▁readiness 1
▁flor 1
grand 1
▁policemen 1
▁kicker 1
▁signaling 1
esque 1
▁commuters 1
▁spoiled 1
▁golfer 1
▁violin 1
▁desperation 1
▁memorandum 1
▁yama 1
▁wyatt 1
▁oyster 1
▁praising 1
▁distances 1
▁purge 1
▁geographical 1
▁physicist 1
▁nairobi 1
▁abrams 1
▁lantern 1
▁apiece 1
▁induce 1
▁hopped 1
▁depiction 1
▁seventy 1
▁contradiction 1
▁boko 1
▁hoax 1
big 1
▁fragments 1
chuk 1
▁stoppers 1
▁strawberry 1
▁volcanic 1
kur 1
playing 1
▁lament 1
▁unhealthy 1
▁attic 1
▁df 1
ibility 1
▁jenna 1
ctu 1
▁anarchist 1
eria 1
▁honduras 1
▁woody 1
gc 1
▁celsius 1
▁guts 1
▁amounted 1
▁clarified 1
▁reese 1
▁bricks 1
▁contradict 1
▁depressing 1
▁crescent 1
▁sergei 1
▁onions 1
▁offspring 1
lv 1
▁runoff 1
bul 1
▁bowler 1
▁cavs 1
pir 1
existing 1
▁bathrooms 1
▁boarded 1
▁loophole 1
▁hob 1
▁qualifier 1
▁interchange 1
▁inspect 1
▁irrational 1
▁swam 1
▁creditors 1
▁dion 1
▁fac 1
▁battered 1
▁demi 1
▁unleashed 1
▁malawi 1
▁advising 1
▁subs 1
angelo 1
▁funnel 1
▁chennai 1
▁rethink 1
▁buenos 1
▁workload 1
▁dictatorship 1
▁arbor 1
▁tattoos 1
▁yogurt 1
▁notify 1
▁proceeding 1
▁julius 1
▁improper 1
▁marvin 1
▁losers 1
▁inspections 1
▁ff 1
▁cursed 1
holders 1
▁strand 1
▁stanton 1
kun 1
▁123 1
▁herb 1
▁optic 1
▁trivial 1
▁forrest 1
▁sucking 1
▁formats 1
▁screened 1
▁cuddle 1
dhi 1
culture 1
▁guyana 1
gee 1
▁haunt 1
▁tightened 1
▁boiler 1
▁stur 1
▁downturn 1
▁trustee 1
iba 1
▁imam 1
▁tay 1
▁taka 1
▁spawn 1
▁honoring 1
▁sofia 1
▁convict 1
▁sings 1
▁daunting 1
▁alpine 1
▁flourish 1
▁tanner 1
▁claus 1
▁stained 1
▁rosie 1
iver 1
▁slots 1
▁recycled 1
▁cleric 1
▁distributors 1
▁snp 1
▁gallagher 1
tina 1
▁sacrifices 1
▁slumped 1
▁rulers 1
▁dwight 1
▁policeman 1
look 1
▁3:30 1
▁nicknamed 1
stad 1
▁wifi 1
▁erect 1
▁chilly 1
▁num 1
▁additions 1
▁growers 1
▁doe 1
▁hamlet 1
κ 1
▁curl 1
▁shortstop 1
▁instincts 1
▁whisk 1
▁kristen 1
▁froze 1
▁indications 1
▁considerations 1
▁snapshot 1
▁basil 1
▁continuity 1
▁bancorp 1
▁pots 1
▁journals 1
quet 1
▁dominion 1
▁edwin 1
▁tart 1
zzy 1
▁1:30 1
▁hustle 1
▁manually 1
▁krishna 1
▁lawson 1
600 1
▁deficits 1
▁alexandra 1
▁hardcore 1
▁02 1
▁fue 1
▁117 1
.24 1
▁wm 1
▁jurisdictions 1
▁sindh 1
▁inherently 1
wit 1
▁latch 1
▁mclaren 1
▁swansea 1
▁midday 1
▁tease 1
▁laptops 1
nee 1
▁millionaire 1
▁dominating 1
▁chuckle 1
▁2018-19 1
▁hinder 1
▁extraction 1
▁hemisphere 1
▁denise 1
corn 1
▁termed 1
▁str 1
▁neon 1
atur 1
▁crowned 1
▁fray 1
▁admittedly 1
▁wraps 1
▁brewer 1
▁norris 1
▁realdonaldtrump 1
▁homeowner 1
nit 1
▁dani 1
▁crist 1
▁conquest 1
▁rematch 1
▁fau 1
▁eats 1
▁amenities 1
▁creed 1
▁shave 1
▁jennings 1
▁lambert 1
▁towels 1
▁)) 1
▁lionel 1
▁wor 1
▁irresponsible 1
▁multiplayer 1
▁eagerly 1
▁scanned 1
▁hurried 1
▁leash 1
▁surname 1
▁misunderstanding 1
igh 1
▁bj 1
▁practitioners 1
ott 1
▁honoured 1
▁tir 1
▁rails 1
▁1880 1
.07 1
▁fairfax 1
gler 1
owitz 1
▁bona 1
▁calculation 1
▁acquitted 1
▁confederation 1
▁spying 1
rourke 1
▁moist 1
trained 1
▁multitude 1
▁dinosaur 1
▁cli 1
▁weld 1
▁colt 1
▁receptions 1
▁valuengine 1
▁sputnik 1
odi 1
▁dew 1
▁[...] 1
▁mattered 1
▁turk 1
demand 1
▁flirt 1
▁evidently 1
▁geoff 1
▁vat 1
▁£6 1
▁favors 1
▁oscars 1
▁grader 1
staff 1
yev 1
▁pacers 1
▁caretaker 1
▁brutality 1
▁supervised 1
▁merri 1
▁copenhagen 1
▁arrows 1
▁hormones 1
▁curtains 1
▁shakes 1
▁simplicity 1
▁retract 1
▁escalated 1
luck 1
▁sniff 1
▁„ 1
money 1
hia 1
▁lud 1
lene 1
cular 1
▁burlington 1
▁monta 1
▁leone 1
▁seals 1
▁proactive 1
isse 1
won 1
lg 1
▁dillon 1
▁technicians 1
tribu 1
▁inflict 1
▁£7 1
▁redirect 1
▁particle 1
▁emoji 1
▁hygiene 1
▁proto 1
▁ransom 1
▁iris 1
▁equip 1
▁portsmouth 1
▁entertained 1
▁aspiring 1
▁kale 1
▁stabilize 1
▁rudy 1
▁insect 1
lina 1
▁kayak 1
▁mop 1
▁aces 1
▁intrigued 1
▁unarmed 1
amine 1
▁ryder 1
▁tul 1
▁bpd 1
▁mafia 1
.01 1
▁extensions 1
▁bast 1
▁downstream 1
▁genetically 1
▁subscriber 1
▁conglomerate 1
vill 1
▁veterinary 1
▁impairment 1
▁morton 1
▁shorten 1
▁soften 1
▁bland 1
▁conceptual 1
▁ober 1
▁buddies 1
▁intricate 1
▁drainage 1
▁evade 1
▁shaky 1
▁commentators 1
▁quarterfinals 1
▁membrane 1
▁decks 1
▁speedy 1
▁kirby 1
heads 1
▁realty 1
▁upbeat 1
▁negro 1
▁rotating 1
▁karma 1
▁ware 1
ulo 1
▁lup 1
▁nutrients 1
▁err 1
▁accumulate 1
bble 1
▁ufo 1
lix 1
▁durable 1
▁embryo 1
▁instruct 1
▁hornets 1
▁headaches 1
▁triggering 1
▁tread 1
illion 1
▁muscular 1
▁fortunes 1
▁shred 1
▁onboard 1
kai 1
eff 1
yang 1
vari 1
▁finch 1
▁fielder 1
▁faa 1
▁mantra 1
.49 1
▁insurgents 1
▁yum 1
▁gorsuch 1
▁cinematic 1
▁corona 1
gren 1
▁abide 1
▁discoveries 1
▁pressured 1
▁cascade 1
▁psychic 1
▁swell 1
▁roam 1
leaning 1
▁privileges 1
▁trafford 1
▁qualifications 1
▁2:30 1
▁philippe 1
▁explanations 1
▁timetable 1
▁discarded 1
▁dishonest 1
▁teaser 1
▁astronauts 1
▁deprived 1
:25 1
▁spaniard 1
eme 1
▁aires 1
▁bali 1
▁corr 1
2.5 1
▁almond 1
▁folding 1
▁snail 1
▁mgm 1
▁patiently 1
▁councils 1
bang 1
▁mascot 1
▁sitcom 1
iman 1
▁disguise 1
-26 1
▁skype 1
▁chanting 1
▁jockey 1
▁escalation 1
then 1
▁remodel 1
▁israelis 1
▁spared 1
▁remembrance 1
▁thighs 1
▁napoleon 1
▁nai 1
▁balloons 1
▁constitutes 1
▁herd 1
▁htc 1
▁vine 1
▁reassure 1
▁mysteries 1
▁keyword 1
▁dealership 1
▁rr 1
▁reluctantly 1
▁iq 1
▁boast 1
▁insulting 1
wald 1
▁defeats 1
▁comparatively 1
▁dwell 1
▁quartet 1
▁witnessing 1
▁outraged 1
▁busiest 1
▁vocalist 1
▁está 1
▁surfing 1
▁mosquito 1
tall 1
▁shay 1
▁obliged 1
▁contributes 1
▁advertisements 1
▁kidnap 1
▁exclaimed 1
▁narrator 1
▁supremacy 1
▁widened 1
▁lexington 1
▁diagram 1
▁adobe 1
▁haircut 1
▁indirectly 1
ą 1
▁empowered 1
pra 1
▁sinclair 1
▁cynthia 1
data 1
▁muster 1
dock 1
▁ethiopian 1
▁amusing 1
▁dividing 1
nath 1
▁curtail 1
▁1908 1
▁login 1
▁angus 1
▁vibration 1
▁calder 1
ά 1
▁compass 1
▁skater 1
▁mend 1
▁disappearing 1
▁riv 1
▁merits 1
▁wf 1
▁arson 1
▁devote 1
▁thornton 1
▁hare 1
▁imperfect 1
pole 1
bid 1
▁uw 1
▁jammu 1
▁voltage 1
▁prescott 1
▁indoors 1
books 1
report 1
▁whistleblower 1
▁dei 1
▁toggle 1
▁jc 1
▁sentiments 1
▁pigeon 1
ume 1
▁lancashire 1
icle 1
▁ey 1
▁clad 1
▁billed 1
▁loot 1
▁cac 1
▁provocative 1
▁boon 1
borne 1
▁alvarez 1
wil 1
▁dietary 1
▁yong 1
god 1
know 1
▁accumulation 1
quist 1
fm 1
agan 1
▁psg 1
▁yielded 1
▁liable 1
▁invites 1
▁therapies 1
▁dea 1
▁nurture 1
▁longstanding 1
▁ninety 1
about 1
▁skid 1
developed 1
▁envy 1
▁disgust 1
▁tailor 1
▁restraining 1
▁mogul 1
▁motto 1
▁sparkling 1
▁hesitation 1
▁renault 1
▁catalogue 1
dou 1
▁recreate 1
▁1,6 1
▁gis 1
▁trusting 1
▁preceding 1
▁remorse 1
▁backlog 1
▁artisan 1
▁wee 1
▁bowie 1
▁curved 1
▁braun 1
▁boiling 1
inning 1
▁minn 1
▁stitches 1
fur 1
▁prefers 1
▁prevalence 1
▁4.3 1
▁fas 1
▁cutter 1
▁sled 1
stro 1
▁swearing 1
▁dime 1
▁compute 1
▁jakarta 1
▁5-1 1
2018 1
▁tunisia 1
▁freshly 1
▁suicidal 1
▁meteor 1
▁gigantic 1
▁nominal 1
▁stroller 1
▁ethic 1
▁carlo 1
▁believer 1
▁lizard 1
▁dhabi 1
▁meek 1
▁redevelopment 1
▁nile 1
▁serb 1
▁refinery 1
▁zimmerman 1
.09 1
energy 1
▁batsman 1
▁acre 1
▁viruses 1
▁sideways 1
▁susceptible 1
▁volunteering 1
▁interacting 1
ulated 1
▁deport 1
onne 1
▁hallmark 1
▁patty 1
▁kitten 1
▁flop 1
seven 1
▁snatch 1
▁heidi 1
▁augusta 1
▁diy 1
▁exhaustion 1
.48 1
nthrop 1
cip 1
baum 1
▁lawful 1
▁yak 1
▁governmental 1
▁hive 1
▁harmless 1
▁lush 1
▁modifications 1
▁staffing 1
dividend 1
shin 1
▁nv 1
▁downing 1
▁parkinson 1
▁extinct 1
% 1
▁tailored 1
▁resentment 1
▁detain 1
▁panicked 1
▁hyundai 1
▁fend 1
▁supplements 1
▁118 1
position 1
▁demar 1
▁rubble 1
▁newcomers 1
▁speculated 1
▁westbrook 1
▁commercially 1
▁baz 1
▁organizational 1
▁blush 1
▁plank 1
▁cinnamon 1
▁coding 1
flo 1
▁4.4 1
▁carmen 1
▁objected 1
▁redeem 1
▁2023 1
▁youngster 1
▁diversion 1
▁starving 1
▁elaine 1
▁recalling 1
own 1
▁dossier 1
▁cala 1
toria 1
tari 1
▁mage 1
▁ropes 1
▁alicia 1
▁stemming 1
because 1
▁homage 1
▁relish 1
▁houthi 1
rica 1
▁38- 1
▁pickle 1
▁crawled 1
▁nitrogen 1
gla 1
fen 1
-29 1
▁++ 1
▁evoke 1
▁drafting 1
kla 1
▁disciples 1
▁honours 1
▁neymar 1
▁puppies 1
▁ud 1
▁ronnie 1
▁breakup 1
rap 1
▁teasing 1
▁scratched 1
▁crave 1
kk 1
▁elusive 1
▁ele 1
cation 1
▁hush 1
cen 1
▁signaled 1
▁senegal 1
shift 1
▁dubious 1
▁makeshift 1
▁discovers 1
▁farrell 1
▁adel 1
▁bandit 1
▁underdog 1
▁genres 1
▁kazakhstan 1
▁wordpress 1
▁cuff 1
▁proponents 1
▁hodge 1
▁ipod 1
▁hanson 1
▁friedman 1
ū 1
▁vanderbilt 1
▁organisms 1
▁seldom 1
▁assumes 1
▁traps 1
▁ventura 1
▁glee 1
tested 1
chat 1
▁reproduction 1
tale 1
▁apparatus 1
▁embark 1
▁lieu 1
▁shear 1
rix 1
▁pops 1
▁concede 1
▁stag 1
▁dra 1
▁breathed 1
▁sincerely 1
▁slippery 1
▁ants 1
▁neatly 1
▁namibia 1
▁interrupt 1
▁saunders 1
▁chairperson 1
▁bentley 1
listed 1
oco 1
▁oaks 1
▁explores 1
▁ideals 1
▁monkeys 1
▁linguistic 1
▁slightest 1
▁aria 1
▁dizzy 1
▁kia 1
▁introduces 1
▁aca 1
▁discouraged 1
▁opioids 1
itation 1
▁deborah 1
▁mow 1
agent 1
ñ 1
▁sweetheart 1
▁waiter 1
▁swords 1
▁incidence 1
vale 1
▁busch 1
score 1
▁beginner 1
▁concentrations 1
▁rumored 1
haired 1
▁qi 1
▁burgers 1
▁cocoa 1
▁baskets 1
north 1
▁alias 1
▁compression 1
▁perennial 1
▁atletico 1
▁versa 1
▁coveted 1
▁aussie 1
▁155 1
ook 1
▁bn 1
▁immuno 1
▁moe 1
▁poorest 1
▁deeds 1
▁sliced 1
▁starr 1
▁dependence 1
gur 1
▁pipelines 1
▁spanning 1
▁specializes 1
▁kaiser 1
▁tsu 1
▁ernest 1
▁marches 1
elia 1
▁footing 1
▁dagger 1
▁bul 1
▁leopard 1
▁regent 1
▁shortfall 1
▁skepticism 1
▁benson 1
▁knox 1
▁fundamentals 1
▁nottingham 1
▁plausible 1
▁esports 1
voice 1
▁teachings 1
▁subdivision 1
▁renovations 1
▁wilmington 1
ę 1
▁defenses 1
▁reflective 1
▁librarian 1
fashioned 1
▁uniquely 1
▁omega 1
▁moonlight 1
▁theology 1
▁sped 1
▁breaches 1
▁slab 1
▁04 1
▁inscription 1
▁exhausting 1
▁ee 1
▁prague 1
forth 1
▁intimidating 1
▁borg 1
3.00 1
nus 1
▁yummy 1
▁scrapped 1
▁safari 1
▁gems 1
▁weave 1
▁favourites 1
▁remnants 1
▁immensely 1
▁cynical 1
▁ahl 1
▁cit 1
where 1
▁burnley 1
▁hyderabad 1
▁horton 1
loss 1
▁technician 1
▁radius 1
▁lexi 1
▁cull 1
▁%). 1
▁bartender 1
gia 1
.27 1
cken 1
▁stirring 1
▁bleak 1
▁torque 1
▁supplying 1
▁pains 1
▁flats 1
benz 1
▁grains 1
▁colombian 1
▁scarlet 1
▁authenticity 1
▁tulsa 1
▁rake 1
▁bribery 1
▁sud 1
▁pinpoint 1
▁unused 1
▁kala 1
▁combinations 1
▁comprehend 1
▁peep 1
bill 1
▁astro 1
▁emi 1
▁restless 1
▁gio 1
▁prohibits 1
▁cramp 1
▁cite 1
▁distributor 1
▁humid 1
enda 1
▁chit 1
▁covert 1
▁prevailing 1
▁weeds 1
▁reins 1
▁clap 1
▁sushi 1
▁barricade 1
▁hulu 1
▁mushrooms 1
▁fuse 1
▁adore 1
▁bowed 1
▁wag 1
▁seas 1
▁temples 1
▁kum 1
▁withstand 1
▁mcmahon 1
.39 1
▁toledo 1
▁partnering 1
conscious 1
▁donkey 1
▁seg 1
▁playful 1
▁exceeding 1
▁cockpit 1
▁visions 1
▁uphill 1
▁polymer 1
▁enjoyment 1
▁conventions 1
tank 1
▁alonso 1
▁executing 1
rent 1
▁nrl 1
▁wrestler 1
▁lob 1
▁airborne 1
▁pneumonia 1
bear 1
▁saturn 1
ün 1
▁angered 1
▁coil 1
▁preach 1
▁fading 1
business 1
▁hubs 1
▁chaired 1
▁berger 1
▁aquarium 1
▁rovers 1
▁7-6 1
▁strides 1
▁peppers 1
▁03 1
▁brittany 1
▁mort 1
▁sanctioned 1
▁mccabe 1
▁zambia 1
▁alternatively 1
▁loosely 1
▁affirm 1
.88 1
▁chefs 1
▁ponder 1
▁coward 1
ção 1
▁prominence 1
▁paypal 1
▁wrath 1
▁contestant 1
▁victorious 1
▁nightmares 1
▁emerald 1
▁spree 1
▁aura 1
wave 1
▁nel 1
▁kaz 1
▁gregg 1
▁sneakers 1
▁vigilant 1
▁sali 1
shing 1
▁cricketer 1
▁gasped 1
hei 1
oku 1
▁mayweather 1
▁garland 1
▁novelist 1
▁jul 1
▁colder 1
▁watkins 1
lman 1
▁pillars 1
kor 1
▁flurry 1
▁imaginary 1
insky 1
▁3000 1
▁cougars 1
▁sah 1
▁sensory 1
▁catering 1
zin 1
▁rutgers 1
did 1
▁finalist 1
▁chrysler 1
▁ops 1
▁glitter 1
▁tackled 1
▁employing 1
▁interpreter 1
hak 1
come 1
lop 1
▁feasible 1
director 1
▁aba 1
uddin 1
▁caffeine 1
▁keller 1
▁spicy 1
▁flashback 1
▁honorable 1
▁24/7 1
▁kosovo 1
▁spurred 1
▁scenic 1
▁hears 1
sser 1
8.00 1
▁slovenia 1
▁edible 1
▁pathways 1
zhou 1
▁stormy 1
▁scarce 1
▁bleed 1
lite 1
▁occupants 1
shadow 1
▁irma 1
purpose 1
manship 1
fast 1
percent 1
▁clutter 1
engine 1
▁4.1 1
.37 1
▁relevance 1
▁flagged 1
ranging 1
▁suppression 1
▁arrogant 1
▁jacques 1
jun 1
condition 1
▁ubuntu 1
▁lighthouse 1
▁bain 1
▁undergone 1
▁kuala 1
▁fastball 1
▁courageous 1
plate 1
▁yoshi 1
▁groin 1
▁stafford 1
▁gunn 1
▁ptsd 1
▁unsuccessfully 1
▁urges 1
▁elites 1
▁glaring 1
د 1
▁pits 1
▁conflicting 1
▁vac 1
▁penetration 1
▁nostalgia 1
▁nearing 1
▁soak 1
▁blazers 1
▁entitlement 1
▁lapse 1
.22 1
▁amelia 1
▁rents 1
▁synchro 1
▁carolyn 1
▁philly 1
yar 1
▁clari 1
▁captures 1
▁strains 1
.23 1
в 1
▁muttered 1
▁rusty 1
hd 1
▁jessie 1
▁sanction 1
▁propel 1
▁osborne 1
▁landlords 1
▁mutant 1
▁madden 1
anu 1
▁penned 1
tura 1
▁lookout 1
▁quantitative 1
secret 1
▁keynote 1
▁mammals 1
▁2015-16 1
▁envisioned 1
▁georgian 1
▁crafting 1
akis 1
▁119 1
▁distributing 1
▁flashes 1
▁elena 1
▁homecoming 1
▁stew 1
▁astronaut 1
▁saddened 1
▁torpedo 1
wyn 1
▁utilizing 1
▁sanitation 1
▁rapist 1
▁helmets 1
▁deception 1
▁cornwall 1
▁shad 1
▁bullied 1
▁byrne 1
▁presumed 1
▁warmed 1
▁ramon 1
lou 1
hana 1
▁cau 1
▁debating 1
▁buckingham 1
uous 1
▁naga 1
▁sabotage 1
▁pdt 1
▁tissues 1
▁hak 1
▁1905 1
▁liabilities 1
assad 1
▁xiaomi 1
▁aquatic 1
▁bogey 1
▁scans 1
▁roi 1
▁marr 1
▁scrambling 1
▁internship 1
▁higgins 1
▁sane 1
▁unfairly 1
▁fuzzy 1
▁pbs 1
▁650 1
▁genetics 1
▁visibly 1
▁noisy 1
▁operatives 1
▁volt 1
▁stickers 1
▁albion 1
▁petr 1
▁koreans 1
▁ortiz 1
polis 1
▁passwords 1
▁einstein 1
▁assailant 1
▁rpg 1
▁diminish 1
▁tipping 1
▁spoiler 1
▁marrying 1
▁meth 1
▁bulb 1
▁jeopardy 1
.47 1
▁boyle 1
▁thumbs 1
▁resembles 1
▁bounds 1
▁huff 1
▁flipping 1
:35 1
▁geared 1
▁unconditional 1
.44 1
▁medi 1
economic 1
▁canadiens 1
conference 1
▁pleas 1
▁insecurity 1
▁enforcing 1
▁rituals 1
▁duplicate 1
kw 1
▁predecessors 1
▁imply 1
▁inheritance 1
▁suffolk 1
▁riff 1
trial 1
▁discounted 1
▁dexter 1
▁peripheral 1
▁slender 1
▁informing 1
▁fitz 1
rab 1
▁specifics 1
▁endowment 1
▁bred 1
▁onset 1
hum 1
▁lilly 1
▁4.0 1
▁2/3 1
▁bombings 1
▁atrocities 1
▁collectors 1
hro 1
eiro 1
▁outweigh 1
▁huntington 1
▁inconvenience 1
change 1
▁mocked 1
▁vulnerabilities 1
▁relocate 1
▁assistants 1
oto 1
▁^ 1
▁eyed 1
▁duff 1
corruption 1
lick 1
▁beforehand 1
▁unicorn 1
▁terminate 1
▁ioc 1
▁brood 1
▁deadliest 1
.46 1
▁cholesterol 1
▁shumë 1
▁heater 1
▁barrage 1
arse 1
▁choked 1
nium 1
▁nora 1
▁claude 1
▁groundbreaking 1
click 1
▁proposes 1
▁manny 1
▁dashboard 1
umba 1
▁hussain 1
pick 1
▁lydia 1
mbu 1
inder 1
▁stirred 1
hub 1
▁diverted 1
▁hoard 1
▁sleek 1
, 1
.02 1
▁inexpensive 1
800 1
▁apostle 1
▁masked 1
▁mins 1
▁spelled 1
▁bounty 1
▁vomit 1
▁renting 1
tones 1
▁autograph 1
▁estates 1
▁rp 1
▁renovated 1
▁netted 1
blood 1
▁vw 1
▁empowering 1
▁equate 1
▁totaled 1
▁cling 1
▁registering 1
▁alarmed 1
▁loneliness 1
▁frown 1
linger 1
▁inventor 1
▁emery 1
▁pistons 1
▁blackrock 1
grave 1
.76 1
rill 1
▁pune 1
nate 1
▁abducted 1
▁bureaucracy 1
▁zan 1
▁showcased 1
▁lal 1
▁yun 1
▁midlands 1
▁macy 1
obi 1
▁brisk 1
dian 1
▁armored 1
▁fn 1
▁della 1
▁liter 1
▁tucson 1
▁alba 1
▁gorilla 1
▁cornerstone 1
▁exxon 1
▁duel 1
▁famine 1
▁caldwell 1
.98 1
▁nr 1
operation 1
▁mindful 1
▁moran 1
▁sinister 1
haus 1
tol 1
▁harr 1
▁bernardino 1
60,000 1
eco 1
▁inhibit 1
▁personalized 1
40,000 1
bull 1
▁richer 1
aron 1
▁hymn 1
▁sediment 1
acc 1
▁circumstance 1
birds 1
▁wembley 1
▁controllers 1
▁apologise 1
***** 1
▁mili 1
▁cumulative 1
▁resonate 1
▁fanatic 1
▁janë 1
▁slashed 1
▁subsidy 1
▁veins 1
▁errands 1
rado 1
▁segregation 1
▁cues 1
▁sca 1
▁staffer 1
▁constituted 1
▁126 1
.03 1
▁1906 1
▁esa 1
▁socket 1
▁wield 1
.56 1
▁packaged 1
▁sims 1
▁blvd 1
▁bedford 1
▁marg 1
march 1
▁hap 1
▁clint 1
▁ensures 1
▁yeast 1
grid 1
▁sparkle 1
▁inhibitor 1
▁outsiders 1
▁concord 1
▁accelerating 1
▁vocabulary 1
▁wai 1
▁installations 1
▁scaling 1
▁kensington 1
▁forestry 1
▁š 1
▁pawn 1
▁gloss 1
▁clarence 1
▁scarborough 1
▁cheated 1
▁relic 1
▁pcs 1
▁deduction 1
▁.). 1
igen 1
▁sorting 1
▁turtles 1
▁meaningless 1
▁stressing 1
▁cafeteria 1
▁unfolded 1
public 1
▁statistic 1
▁kraft 1
▁lester 1
▁rho 1
▁tinker 1
▁unreasonable 1
▁shrug 1
▁bihar 1
▁tasmania 1
▁predicts 1
▁mushroom 1
▁belarus 1
▁violates 1
▁imbalance 1
▁curt 1
▁rosenstein 1
▁lows 1
▁morale 1
▁vampires 1
▁sammy 1
▁frantic 1
▁debit 1
▁methane 1
▁applaud 1
▁admiration 1
▁carving 1
▁anita 1
▁borrowers 1
▁ani 1
ieri 1
▁invent 1
▁galleries 1
▁cecil 1
▁alum 1
▁exaggerated 1
▁missionaries 1
▁shr 1
▁councilman 1
▁queries 1
▁gripped 1
self 1
▁groan 1
▁commence 1
astic 1
▁attire 1
▁mnuchin 1
▁automakers 1
▁compost 1
inen 1
atta 1
▁holl 1
▁moines 1
▁dryer 1
▁brig 1
▁busted 1
▁canned 1
▁kip 1
▁interviewing 1
▁router 1
▁cong 1
ffin 1
avan 1
▁citigroup 1
▁rican 1
rar 1
▁sob 1
▁resurrection 1
▁addict 1
▁perfume 1
▁goldberg 1
▁simplify 1
▁trophies 1
▁chassis 1
я 1
▁buk 1
▁stacey 1
fighting 1
▁agony 1
▁plotting 1
▁collateral 1
▁cisco 1
▁brightly 1
▁focal 1
▁gai 1
▁politely 1
▁pupil 1
▁malt 1
▁phenomena 1
▁siri 1
▁bisexual 1
done 1
▁relocation 1
/8 1
rang 1
▁factual 1
▁seminary 1
▁airstrikes 1
▁newcomer 1
.66 1
▁tories 1
▁paige 1
▁dinosaurs 1
▁upstream 1
clo 1
ctic 1
▁conditional 1
γ 1
▁welles 1
▁tek 1
▁frenzy 1
▁valerie 1
▁swoop 1
▁inspirational 1
▁aspire 1
▁snapping 1
▁nutritional 1
▁sticker 1
▁suzuki 1
▁melanie 1
-60 1
▁equi 1
▁prostate 1
ό 1
. 1
wee 1
▁harmed 1
▁pear 1
▁bribe 1
▁womb 1
▁12:30 1
▁manipulated 1
▁spies 1
▁tempting 1
▁vodka 1
▁vera 1
▁monks 1
▁frankie 1
mers 1
▁devastation 1
▁disneyland 1
▁vid 1
▁wah 1
▁copa 1
oga 1
▁cathy 1
▁oprah 1
▁induction 1
▁roadside 1
▁ruck 1
ddling 1
▁gubernatorial 1
▁flashlight 1
▁unveil 1
▁hover 1
▁plow 1
▁ges 1
▁jed 1
▁complainant 1
▁4.6 1
▁gaw 1
▁prick 1
▁optimization 1
▁ped 1
▁forbid 1
bf 1
▁sna 1
▁mathew 1
anian 1
▁vomiting 1
▁'." 1
▁planner 1
itude 1
▁obstruct 1
treat 1
▁hmmm 1
▁financed 1
rom 1
▁glucose 1
▁giuliani 1
▁racially 1
▁depicts 1
iron 1
▁tumble 1
▁barracks 1
▁anatomy 1
▁shrub 1
▁1870 1
▁hotline 1
4.00 1
▁jelly 1
▁unanswered 1
▁rue 1
▁blackmail 1
lund 1
▁grease 1
▁jung 1
▁breached 1
▁deem 1
▁augmented 1
▁122 1
▁incorporating 1
etto 1
▁whereby 1
▁liberia 1
▁diagnose 1
scribe 1
▁brutally 1
▁opp 1
▁inquest 1
▁reassuring 1
▁defiant 1
▁insults 1
▁outsider 1
▁mortgages 1
▁apologies 1
▁tossing 1
▁sailor 1
▁greatness 1
▁coupon 1
▁opting 1
▁commended 1
▁ota 1
▁flowed 1
▁ftse 1
▁bowman 1
▁5-2 1
▁morales 1
▁miracles 1
oba 1
▁rapp 1
▁dodd 1
▁intervals 1
10,000 1
▁hof 1
▁fiji 1
▁mythology 1
▁respectable 1
▁lumpur 1
▁coloured 1
▁10:00 1
▁bbq 1
▁gosh 1
.34 1
color 1
▁rugged 1
▁guarded 1
▁cupboard 1
▁shk 1
▁lia 1
▁loch 1
▁revoked 1
.96 1
▁staunch 1
.86 1
▁summers 1
▁onwards 1
▁chunks 1
▁injected 1
▁forgiven 1
▁fay 1
▁confronting 1
▁06 1
▁retreated 1
▁scalp 1
▁validity 1
▁inherit 1
▁disposable 1
cloth 1
▁stalls 1
chenko 1
▁reflex 1
▁amused 1
▁hanna 1
▁pj 1
▁1,7 1
akh 1
ilo 1
▁lew 1
ppe 1
▁rampage 1
▁bli 1
▁eyewitness 1
▁paranoid 1
/5 1
▁excerpt 1
▁narcotics 1
▁ppp 1
▁barking 1
▁firefox 1
▁nanny 1
▁(; 1
▁365 1
▁thanking 1
▁selections 1
▁jensen 1
mom 1
▁listings 1
▁midwife 1
▁pantry 1
▁pelicans 1
▁berkshire 1
▁perceptions 1
▁wiping 1
▁flori 1
▁bravo 1
ania 1
▁nda 1
train 1
▁betray 1
▁rotate 1
▁cate 1
▁devi 1
▁(+ 1
▁roh 1
▁brin 1
▁morally 1
▁burrow 1
▁espionage 1
▁infringement 1
▁dripping 1
▁fugitive 1
▁hovering 1
▁retrieved 1
vio 1
▁hauled 1
▁materially 1
usi 1
▁flutter 1
zak 1
▁administer 1
▁irre 1
rite 1
.68 1
▁suarez 1
▁alder 1
▁panties 1
▁gofundme 1
▁keystone 1
▁sexist 1
▁murdoch 1
wd 1
▁admin 1
▁bidder 1
▁lux 1
▁fleming 1
▁hmm 1
.89 1
▁clubhouse 1
▁braid 1
onda 1
▁erotic 1
▁defer 1
▁spontaneous 1
▁hypothetical 1
▁abdel 1
▁fencing 1
▁bieber 1
ár 1
▁abolish 1
▁automaker 1
▁lena 1
▁05 1
▁chavez 1
▁unjust 1
ifier 1
priced 1
firm 1
▁authored 1
kwa 1
fy 1
▁southbound 1
▁slopes 1
▁progressing 1
▁jai 1
▁pom 1
▁disqualified 1
▁departing 1
▁accuses 1
▁menace 1
▁gli 1
▁erratic 1
▁lafayette 1
▁undermining 1
▁cultivation 1
onte 1
▁illustrates 1
▁bumped 1
.32 1
▁apt 1
▁210 1
▁imagining 1
fb 1
.77 1
▁weighted 1
▁glamorous 1
▁improves 1
▁liner 1
nim 1
▁hysterical 1
▁decreasing 1
▁)? 1
▁linger 1
▁salisbury 1
▁dover 1
▁lyft 1
▁parted 1
▁communicated 1
▁thames 1
▁vows 1
▁denomination 1
▁grinding 1
▁recorder 1
▁cosmetic 1
▁overdue 1
metre 1
ż 1
▁bosnia 1
▁canopy 1
▁lyric 1
▁larson 1
▁constellation 1
▁ameri 1
info 1
▁fresno 1
blue 1
▁myths 1
▁ariana 1
▁1907 1
▁1909 1
fair 1
▁glaze 1
▁pav 1
music 1
▁guam 1
defined 1
▁baltic 1
▁cour 1
▁coordinating 1
▁bumps 1
▁labelled 1
▁fulfil 1
▁underscore 1
rice 1
▁fallon 1
fiction 1
▁verde 1
▁grieve 1
ów 1
▁:: 1
▁numbered 1
▁pointless 1
▁cyrus 1
▁domino 1
▁huskies 1
▁abandoning 1
▁madonna 1
▁walnut 1
▁baptism 1
▁snowfall 1
▁romans 1
▁lipstick 1
tek 1
cf 1
.69 1
▁skim 1
▁communism 1
▁emergencies 1
▁monumental 1
▁sidewalks 1
▁lauderdale 1
▁trickle 1
▁runaway 1
▁mater 1
▁treason 1
scope 1
▁fares 1
▁270 1
▁measles 1
▁coastline 1
▁browsing 1
worm 1
▁mckenzie 1
▁honeymoon 1
▁applicant 1
▁binge 1
▁borne 1
▁scaled 1
▁vander 1
▁societal 1
▁ominous 1
▁poorer 1
▁prefecture 1
▁irvine 1
note 1
▁ashton 1
▁hopeless 1
▁cyclist 1
▁kurds 1
▁bystander 1
▁pomp 1
limit 1
dependent 1
▁grapes 1
▁coping 1
office 1
▁fielding 1
illard 1
▁kant 1
▁belts 1
▁elias 1
▁5.7 1
▁anticipating 1
gic 1
buck 1
▁banquet 1
▁procedural 1
▁viktor 1
▁marketed 1
▁slain 1
fried 1
▁osaka 1
▁contracting 1
▁cherish 1
▁unpack 1
rob 1
▁roasted 1
alia 1
▁abdomen 1
kra 1
nova 1
▁sewage 1
bbe 1
choice 1
▁taj 1
▁jasmine 1
zal 1
▁graz 1
▁deed 1
▁facade 1
▁sodium 1
▁geopolitical 1
ahan 1
▁tolerated 1
▁spartans 1
▁kohl 1
▁moan 1
▁seasoned 1
▁hq 1
▁businessmen 1
▁rallying 1
quan 1
▁entertainer 1
▁glare 1
▁yea 1
▁doping 1
▁mush 1
▁drying 1
6.00 1
lated 1
▁flaw 1
▁syndicated 1
▁motions 1
▁rendition 1
▁torso 1
▁homestead 1
▁shooters 1
▁exiting 1
▁episcopal 1
▁jewellery 1
▁rajasthan 1
established 1
▁3.9 1
▁startling 1
▁clarification 1
▁emission 1
▁tj 1
▁majesty 1
▁parasite 1
▁cooks 1
▁presbyterian 1
▁hitters 1
▁ingram 1
mere 1
▁levin 1
▁whine 1
▁tidy 1
▁tandem 1
▁catalonia 1
▁doorstep 1
▁batted 1
▁fertilizer 1
vc 1
** 1
▁decorating 1
▁meteorologist 1
▁snatched 1
▁github 1
ría 1
▁harare 1
▁121 1
▁daw 1
▁rewrite 1
▁strategically 1
▁colbert 1
▁rescuers 1
▁pave 1
▁crook 1
▁condemning 1
heart 1
▁css 1
▁devour 1
▁murdering 1
iston 1
▁watershed 1
▁cristiano 1
▁hesitated 1
▁hector 1
▁poultry 1
▁felon 1
▁trench 1
▁accessibility 1
▁nb 1
▁gears 1
▁165 1
▁compile 1
▁mercer 1
▁ariel 1
flower 1
▁mutually 1
▁browse 1
▁stephan 1
▁constituencies 1
▁framing 1
▁warden 1
▁klu 1
▁rationale 1
▁outburst 1
▁alibaba 1
▁manifestation 1
▁atom 1
▁subordinate 1
.79 1
▁fills 1
▁oversaw 1
▁extracted 1
-47 1
▁obi 1
▁gunmen 1
▁unfinished 1
▁malaria 1
▁sparking 1
× 1
icia 1
▁hump 1
▁reinvent 1
▁fiddle 1
▁disclaimer 1
▁smashing 1
tool 1
▁sheila 1
.21 1
ivi 1
▁unseen 1
▁hua 1
▁ceremonial 1
rain 1
▁histories 1
▁discontinued 1
▁cnbc 1
mexico 1
▁insurgency 1
hya 1
▁marilyn 1
▁jackpot 1
▁waterloo 1
▁tem 1
▁vita 1
▁taped 1
▁bode 1
▁argo 1
▁cameo 1
▁sloan 1
agon 1
▁hau 1
▁barge 1
▁woodward 1
▁exodus 1
▁emit 1
▁hangs 1
nak 1
▁hateful 1
.97 1
▁sanity 1
▁brahm 1
▁disappoint 1
▁fences 1
▁franken 1
▁educator 1
▁rodrigo 1
▁storing 1
▁lettuce 1
▁ricardo 1
▁periodically 1
▁squeak 1
▁negligence 1
▁databases 1
▁franchises 1
▁carrots 1
▁124 1
▁4.7 1
▁bourbon 1
▁ibn 1
recht 1
rone 1
▁avocado 1
▁marcos 1
▁fam 1
illi 1
▁mj 1
.78 1
ester 1
linked 1
▁usda 1
▁helena 1
▁yates 1
▁skipping 1
▁spiders 1
terrorism 1
▁jasper 1
▁galli 1
ryn 1
▁coughing 1
më 1
▁delve 1
▁kinder 1
π 1
gay 1
▁khu 1
▁ipswich 1
▁sochi 1
▁glut 1
▁freshmen 1
▁savvy 1
▁reckon 1
▁dui 1
border 1
▁solemn 1
▁endemic 1
uku 1
▁encrypted 1
▁strapped 1
▁psalm 1
▁republished 1
▁5.1 1
▁kolkata 1
▁mavericks 1
▁tumbled 1
▁nem 1
▁daytona 1
▁cosmo 1
▁cesar 1
▁bamboo 1
▁owes 1
raz 1
▁merrill 1
▁weakening 1
▁pianist 1
▁efficacy 1
▁ballroom 1
▁motorcycles 1
▁elevate 1
▁clashed 1
▁savor 1
▁zar 1
▁sonny 1
▁bulgarian 1
▁maroon 1
▁nationalists 1
▁vaguely 1
rion 1
▁northbound 1
▁deploying 1
▁humorous 1
▁pebble 1
▁sparse 1
▁vii 1
▁sme 1
eurs 1
▁tramp 1
▁hayward 1
cchi 1
▁quirky 1
▁nichols 1
▁watford 1
tima 1
▁sasha 1
▁softer 1
▁concluding 1
▁uv 1
▁triggers 1
▁gabe 1
▁deposited 1
▁barbie 1
▁127 1
▁validation 1
▁buyback 1
▁ow 1
▁raffle 1
▁newsroom 1
▁uneven 1
▁shove 1
▁backstage 1
▁carnegie 1
▁wellbeing 1
▁proclamation 1
▁enlist 1
▁clyde 1
rule 1
▁intervened 1
▁inhabit 1
ffen 1
ahead 1
▁audrey 1
▁shameful 1
▁132 1
▁duct 1
▁boasted 1
▁paddock 1
▁knuckle 1
▁thunderstorms 1
▁1901 1
▁toxin 1
▁fernandez 1
▁tomas 1
▁campaigners 1
rios 1
▁stoppage 1
▁butterflies 1
▁connector 1
▁mantle 1
▁shiva 1
▁fang 1
▁garb 1
▁iphones 1
▁8.5 1
▁scratching 1
acio 1
▁fearless 1
▁tame 1
▁inadvertently 1
▁bruised 1
▁cartoons 1
▁coherent 1
tical 1
▁£10 1
▁somerset 1
.43 1
production 1
▁climax 1
▁hiatus 1
▁consultancy 1
▁jaguar 1
▁parsons 1
▁cartridge 1
▁intoxicated 1
▁archie 1
▁citi 1
▁payload 1
▁regal 1
▁seb 1
▁contacting 1
▁distressed 1
dong 1
▁xp 1
▁countdown 1
▁everett 1
lord 1
▁fiercely 1
▁trojans 1
stadt 1
keeping 1
▁munch 1
▁bodyguard 1
▁incapable 1
▁dahl 1
▁48- 1
bai 1
▁casualty 1
▁blinked 1
▁gol 1
▁cider 1
▁wat 1
▁utmost 1
▁slogans 1
▁bf 1
▁juliet 1
▁stamford 1
activity 1
▁permitting 1
▁reformed 1
plex 1
▁berk 1
▁modification 1
▁rooster 1
▁pang 1
▁showcasing 1
▁ubs 1
▁mca 1
-50 1
▁projecting 1
▁playlist 1
▁katz 1
▁insecure 1
▁graft 1
combe 1
▁luxurious 1
▁joyful 1
bru 1
▁anonymously 1
▁duffy 1
▁oriented 1
▁rupert 1
▁collier 1
▁sucker 1
▁recounted 1
▁ethnicity 1
▁prima 1
▁cassidy 1
▁flair 1
▁antoine 1
▁1904 1
▁stout 1
▁marcel 1
enti 1
▁reyes 1
active 1
▁outpost 1
▁entrepreneurship 1
▁fists 1
▁detached 1
bug 1
▁lex 1
▁ripping 1
▁pare 1
▁dangerously 1
▁adrenaline 1
▁nicaragua 1
songwriter 1
▁discriminatory 1
▁dealings 1
▁weary 1
▁restricting 1
п 1
▁surgeons 1
▁raping 1
▁shal 1
▁dhs 1
▁nur 1
▁receptor 1
▁spinner 1
▁lobbyists 1
▁honolulu 1
▁knob 1
1⁄2 1
uche 1
▁romero 1
▁ledger 1
▁rowe 1
russian 1
▁angrily 1
▁rubin 1
▁olson 1
▁slices 1
▁hancock 1
▁xu 1
▁ulster 1
▁tij 1
▁highlands 1
▁haf 1
▁methamphetamine 1
▁80,000 1
▁authentication 1
▁flawless 1
▁ancestry 1
gni 1
oxi 1
▁belichick 1
▁prote 1
▁neb 1
▁exhibitions 1
▁warwick 1
husband 1
ы 1
▁fischer 1
▁sj 1
▁practise 1
tab 1
motion 1
▁statistically 1
μ 1
▁gothic 1
▁handicap 1
▁recharge 1
escu 1
lash 1
▁converge 1
▁retaliate 1
kle 1
▁amir 1
▁crit 1
▁livingston 1
▁bolivia 1
▁clifford 1
▁escalate 1
▁prosecuting 1
bah 1
▁bowel 1
▁slovakia 1
▁5-4 1
▁bathing 1
nock 1
▁echoes 1
▁inflicted 1
▁doctorate 1
▁gbx 1
▁slamming 1
▁devos 1
uba 1
▁spouses 1
▁theodore 1
▁0-0 1
▁blackhawks 1
▁bruises 1
▁resides 1
▁zin 1
▁bleach 1
▁lon 1
▁cocktails 1
▁submitting 1
▁dared 1
▁orphanage 1
jee 1
▁lifts 1
▁inspected 1
▁convertible 1
sexual 1
cloud 1
▁biker 1
▁painfully 1
▁onstage 1
▁claws 1
▁biz 1
▁lig 1
▁excavation 1
▁evenly 1
▁leasing 1
▁stokes 1
riel 1
▁opposes 1
▁platt 1
▁swore 1
▁aston 1
▁picket 1
▁applauded 1
▁beams 1
▁torre 1
▁suspicions 1
▁peas 1
▁holden 1
▁sweating 1
▁ria 1
▁chipped 1
▁kimberly 1
▁righteous 1
▁withdrawing 1
▁mutations 1
turned 1
▁1860 1
▁domination 1
lap 1
▁adulthood 1
▁spatial 1
nai 1
▁yam 1
▁polk 1
▁bahamas 1
▁malfunction 1
▁lenin 1
tino 1
▁outings 1
▁liaison 1
▁greenville 1
▁widening 1
▁trolls 1
▁vick 1
▁koh 1
▁momma 1
▁ministerial 1
▁ign 1
▁64- 1
▁nip 1
▁eccentric 1
▁luxembourg 1
▁eighty 1
▁transporting 1
▁expires 1
▁cob 1
▁wonderfully 1
▁waived 1
▁fiona 1
▁tranquil 1
▁cannes 1
▁jolt 1
.31 1
▁damian 1
covered 1
▁whim 1
▁fret 1
▁offensively 1
▁eleanor 1
▁sherlock 1
▁cheapest 1
▁barker 1
▁apocalypse 1
▁aroma 1
▁parrot 1
▁rebuke 1
▁arabian 1
▁mayfield 1
▁arising 1
▁competitiveness 1
▁transmit 1
▁mcmaster 1
▁commuter 1
▁napoli 1
abo 1
▁vh 1
esis 1
▁endeavour 1
▁conner 1
▁approving 1
▁rea 1
▁definitions 1
▁broward 1
▁foley 1
▁outcry 1
ī 1
▁lund 1
▁twentieth 1
▁prescriptions 1
▁hoop 1
▁insistence 1
▁authorize 1
▁dams 1
▁tendencies 1
▁richie 1
▁janeiro 1
▁displacement 1
.87 1
80,000 1
▁lennon 1
▁heroine 1
▁feinstein 1
▁valle 1
truck 1
rome 1
blog 1
▁macedonia 1
▁beads 1
▁rotary 1
▁capitalize 1
▁dic 1
ury 1
▁loo 1
▁bravery 1
▁romeo 1
▁implant 1
▁speculative 1
▁bezos 1
▁tuna 1
prop 1
bab 1
▁jihad 1
▁trimmed 1
▁35,000 1
▁0-1 1
▁invade 1
blo 1
▁dante 1
▁gregor 1
▁inaugurated 1
cover 1
eke 1
▁differentiate 1
▁captioned 1
sync 1
▁analytical 1
▁informant 1
▁henri 1
▁rout 1
▁allergy 1
▁clusters 1
7.5 1
▁unrealistic 1
▁unspecified 1
tour 1
▁profoundly 1
▁kb 1
▁leonardo 1
security 1
▁hugging 1
▁educating 1
.74 1
▁generators 1
▁grizzlies 1
▁cfo 1
▁irritated 1
shme 1
▁enrique 1
▁tummy 1
▁olympia 1
▁aluminium 1
▁silhouette 1
▁frei 1
▁marian 1
▁poe 1
▁allergies 1
loo 1
▁cata 1
forward 1
▁delaying 1
▁proliferation 1
▁peyton 1
▁noodles 1
▁lug 1
▁railing 1
▁experimenting 1
▁perpetual 1
▁hunk 1
▁waffle 1
▁cellar 1
iii 1
▁youthful 1
▁1-3 1
▁nig 1
kom 1
▁glitch 1
▁urgently 1
▁confinement 1
▁pioneering 1
▁boiled 1
▁launcher 1
▁cautiously 1
▁deserted 1
ffy 1
camera 1
▁rodeo 1
▁dispense 1
▁whichever 1
▁standalone 1
▁lauded 1
▁enclave 1
▁stamped 1
▁planetary 1
▁totaling 1
.42 1
acea 1
▁occupying 1
▁waivers 1
▁1903 1
mund 1
▁forearm 1
▁receipts 1
strong 1
▁inward 1
▁awaited 1
▁twists 1
▁mummy 1
film 1
bak 1
performance 1
tini 1
wara 1
▁cheerleader 1
storey 1
▁rupees 1
▁reviewer 1
▁conta 1
▁39- 1
▁optimize 1
▁directorate 1
▁sensing 1
▁cay 1
▁calcium 1
idge 1
▁punishing 1
▁bard 1
▁wearable 1
▁129 1
▁restrictive 1
performing 1
▁radioactive 1
▁cir 1
▁pogba 1
▁oslo 1
▁kwa 1
▁lessen 1
▁kilo 1
▁darkest 1
▁(), 1
▁haze 1
▁preaching 1
.57 1
▁eyebrow 1
▁bothering 1
▁emerges 1
▁illustrations 1
▁taboo 1
▁specs 1
▁tammy 1
▁ballad 1
▁ez 1
▁blackburn 1
▁ely 1
▁brun 1
▁comprise 1
burgh 1
▁evo 1
▁abolished 1
▁worms 1
▁uneasy 1
▁defiance 1
inho 1
▁heavens 1
▁stresses 1
▁zah 1
▁mane 1
▁4.8 1
▁cummings 1
▁chartered 1
▁diversify 1
.84 1
▁huffington 1
▁parachute 1
▁denim 1
brown 1
▁radically 1
▁feeder 1
▁patrols 1
▁rattled 1
▁estranged 1
▁prestige 1
▁countered 1
▁existential 1
qual 1
▁kink 1
▁beasts 1
hiro 1
genic 1
▁skier 1
osphere 1
▁periodic 1
▁earrings 1
▁antibiotic 1
▁mango 1
▁mckay 1
▁hamburger 1
bala 1
▁shady 1
inal 1
▁diversified 1
▁boise 1
▁diligence 1
▁mv 1
▁caves 1
▁algeria 1
▁?'" 1
▁diluted 1
▁appalling 1
▁]," 1
▁suffice 1
▁massively 1
▁props 1
▁bundesliga 1
▁traitor 1
▁defects 1
▁pertaining 1
lement 1
hui 1
▁miscarriage 1
▁plural 1
▁barkley 1
▁prosper 1
▁8:00 1
hoff 1
▁gangster 1
▁sib 1
▁pry 1
▁hourly 1
▁bunk 1
▁pentru 1
▁awakening 1
▁zanu 1
▁ebook 1
▁rah 1
▁legalized 1
▁albuquerque 1
▁bladder 1
▁michele 1
▁censor 1
xo 1
entry 1
▁implicated 1
▁7:00 1
▁streamed 1
▁passports 1
▁enclosure 1
▁backbone 1
▁falter 1
▁chaffey 1
poll 1
▁poppy 1
▁nicholson 1
.64 1
▁seamless 1
▁choking 1
▁croatian 1
▁aspen 1
dai 1
eater 1
cke 1
rh 1
▁overcame 1
▁incurred 1
▁kendrick 1
▁thr 1
▁expansive 1
▁lorenzo 1
▁stor 1
▁puzzled 1
▁pretended 1
▁incarceration 1
▁booze 1
tropic 1
▁bandage 1
logist 1
▁pv 1
▁unveiling 1
▁modular 1
▁kiwi 1
▁haunting 1
▁stevenson 1
▁tess 1
▁soros 1
▁lansing 1
▁humphrey 1
▁transcription 1
▁congratulate 1
▁ambush 1
▁humiliation 1
▁tumors 1
▁oli 1
▁fedex 1
▁confuse 1
▁fei 1
trust 1
▁abduction 1
▁organise 1
▁pell 1
▁flora 1
▁sheldon 1
▁sill 1
▁jog 1
▁5.2 1
▁synthesis 1
▁rollout 1
▁disable 1
▁kanë 1
▁mailing 1
olu 1
▁crusade 1
▁mundane 1
▁engulfed 1
▁longing 1
▁resolving 1
▁brushing 1
.59 1
▁tabloid 1
▁gmail 1
▁palette 1
▁veggies 1
error 1
▁charger 1
▁prosperous 1
▁144 1
▁kettle 1
▁famer 1
▁atoms 1
▁peggy 1
▁drifting 1
▁agri 1
▁robo 1
▁vacancy 1
▁crept 1
▁oculus 1
▁rigged 1
▁cringe 1
▁yourselves 1
▁wreckage 1
▁lili 1
paced 1
ounce 1
▁elastic 1
▁outscored 1
▁600,000 1
▁theoretically 1
▁freaked 1
isch 1
▁quitting 1
▁beirut 1
▁gadgets 1
▁grapple 1
▁stringent 1
▁isolate 1
▁militias 1
▁£8 1
▁fluids 1
▁resemblance 1
▁9:00 1
franc 1
charge 1
moving 1
7.00 1
fun 1
▁chronicles 1
▁caliber 1
▁manufactures 1
▁doubted 1
▁bottled 1
▁lash 1
▁këtë 1
▁tails 1
▁openness 1
▁emulate 1
▁tf 1
20,000 1
▁mackay 1
▁swirling 1
▁hassle 1
winner 1
▁chewing 1
bench 1
ović 1
▁proportional 1
▁angie 1
▁vance 1
▁pvt 1
agi 1
▁poked 1
▁!), 1
▁fg 1
▁inflammatory 1
signed 1
mol 1
leader 1
▁260 1
opening 1
electric 1
▁apologised 1
▁1902 1
▁realtor 1
▁obsessive 1
▁malone 1
▁ballpark 1
▁huddersfield 1
▁analytica 1
▁playwright 1
▁ukip 1
▁angular 1
▁advert 1
▁sacrificed 1
▁flap 1
▁eradicate 1
▁balkan 1
▁intrinsic 1
▁allergic 1
▁override 1
▁understandably 1
▁blatant 1
little 1
.... 1
▁conrad 1
▁corpus 1
▁francois 1
▁seriousness 1
▁viking 1
▁wrench 1
▁pleasing 1
rle 1
▁connie 1
▁brunch 1
▁apartheid 1
▁eur 1
▁nunes 1
▁alberto 1
▁estonia 1
س 1
▁careless 1
▁enclosed 1
▁buffett 1
naut 1
▁dreadful 1
▁colourful 1
▁ket 1
▁hannity 1
▁lateral 1
▁airfield 1
▁thro 1
▁contemplating 1
▁ubiquitous 1
enstein 1
rani 1
▁breathtaking 1
▁coliseum 1
▁environmentally 1
к 1
▁mandela 1
▁scrum 1
▁meng 1
hay 1
▁sculptures 1
▁motherhood 1
▁mister 1
▁mosaic 1
athlete 1
▁α 1
number 1
▁budapest 1
▁unconventional 1
▁articulate 1
▁xx 1
▁obese 1
▁utc 1
▁hazards 1
▁70,000 1
▁elicit 1
▁surrogate 1
▁heartbroken 1
▁ambient 1
iso 1
itate 1
croft 1
▁limitation 1
▁mccl 1
▁unsupported 1
▁perks 1
▁abrupt 1
▁camden 1
▁abi 1
▁glamour 1
-2017 1
▁treasures 1
.83 1
▁soaking 1
▁vandalism 1
▁sutherland 1
▁downright 1
▁mf 1
▁uno 1
▁bacterial 1
▁daly 1
▁decorate 1
▁precarious 1
ction 1
▁gearing 1
▁bribes 1
▁noteworthy 1
▁worcester 1
shell 1
▁sprayed 1
▁á 1
▁wrestle 1
▁kasich 1
▁sao 1
▁bandwidth 1
▁π 1
oop 1
▁reconnaissance 1
▁faz 1
▁dyke 1
▁nia 1
▁lowry 1
▁erica 1
▁5000 1
▁mutation 1
▁novo 1
▁peso 1
▁upsetting 1
.58 1
▁undermined 1
▁pilgrims 1
▁windshield 1
.94 1
▁rhyme 1
▁nineteen 1
▁vagina 1
▁sect 1
▁muhammadu 1
▁frantically 1
▁crooked 1
uter 1
▁indexes 1
erton 1
dex 1
▁spo 1
union 1
june 1
▁cradle 1
▁repository 1
join 1
▁naples 1
wrap 1
▁gif 1
ndo 1
▁stimulation 1
amu 1
rano 1
▁skyrocket 1
▁banners 1
▁sexism 1
▁insanity 1
▁overflow 1
▁congratulated 1
▁snapdragon 1
▁intercontinental 1
▁enrich 1
▁nailed 1
▁jama 1
▁impeach 1
▁stalking 1
otto 1
▁drilled 1
▁rog 1
▁invaluable 1
▁1080 1
▁nationality 1
▁raspberry 1
▁sluggish 1
▁shone 1
▁advises 1
▁parameter 1
alli 1
bp 1
▁cg 1
▁naz 1
▁customized 1
balance 1
▁puzzles 1
▁anchorage 1
▁disgusted 1
▁lamented 1
rul 1
▁rossi 1
oria 1
▁bernstein 1
▁supremacist 1
▁provoked 1
▁flea 1
▁surpass 1
▁palms 1
▁fracking 1
▁ejected 1
▁ailment 1
nap 1
▁tah 1
▁550 1
rex 1
▁1,8 1
▁olivier 1
▁offending 1
▁mcca 1
:55 1
▁pundits 1
▁behaved 1
cla 1
▁vandal 1
▁incorrectly 1
▁heartfelt 1
bou 1
▁macau 1
bomb 1
▁consolidate 1
activ 1
hung 1
▁sami 1
▁supplemental 1
▁misinformation 1
▁medalist 1
ului 1
▁thermo 1
ordinate 1
▁0.05 1
▁afforded 1
fee 1
▁cortex 1
▁reunite 1
▁occupational 1
▁kristin 1
▁repayment 1
▁exemptions 1
▁regulating 1
▁zurich 1
▁casinos 1
▁transitional 1
▁eurozone 1
▁leased 1
▁macbook 1
▁fle 1
nig 1
▁abigail 1
▁angola 1
▁contraction 1
▁malay 1
▁reacts 1
▁benefiting 1
▁nicer 1
▁dina 1
▁puddle 1
-70 1
▁detour 1
nav 1
kid 1
▁monsoon 1
▁erased 1
▁textbook 1
▁cpr 1
jal 1
ready 1
▁wolfe 1
▁rained 1
▁apache 1
▁messing 1
▁lineage 1
▁kee 1
▁wrongly 1
▁ves 1
▁khalid 1
▁280 1
▁eviction 1
▁bharat 1
:12 1
▁ips 1
paying 1
.63 1
▁peril 1
▁redesign 1
▁dreaded 1
▁antics 1
▁compulsory 1
▁typhoon 1
▁ensued 1
▁snoop 1
▁rud 1
▁melvin 1
▁racked 1
▁scrimmage 1
▁oman 1
▁passages 1
▁lana 1
▁insurer 1
▁motorway 1
▁arresting 1
cial 1
▁compiler 1
▁warranty 1
▁ecology 1
▁anchored 1
▁coco 1
iano 1
▁mustard 1
▁surfer 1
▁suisse 1
▁mao 1
▁nominate 1
bani 1
▁landscapes 1
▁volvo 1
breaker 1
▁ikea 1
▁leftover 1
ع 1
▁roaring 1
▁divisional 1
▁sensed 1
▁filthy 1
▁distrust 1
▁akron 1
▁ridiculously 1
▁frontline 1
.62 1
▁bournemouth 1
▁marxist 1
▁shipment 1
▁disdain 1
▁shortcut 1
▁sourced 1
▁fluffy 1
▁emerson 1
▁medina 1
▁sass 1
▁magician 1
▁biking 1
hora 1
▁fatty 1
▁tig 1
▁petitions 1
▁seeming 1
▁hutchinson 1
▁0.02 1
▁bonding 1
▁tones 1
▁lest 1
▁notoriously 1
▁bananas 1
~ 1
bush 1
pic 1
.92 1
▁shiite 1
▁immoral 1
rta 1
▁advertise 1
▁getaway 1
▁reggie 1
rsquo 1
▁stumbling 1
▁spaghetti 1
▁counterfeit 1
▁breweries 1
leave 1
wig 1
▁leh 1
induced 1
▁deadlock 1
▁giles 1
▁blanc 1
▁piercing 1
▁veterinarian 1
▁imprint 1
▁mystic 1
▁vicar 1
-31 1
bey 1
▁klan 1
▁johan 1
▁hamper 1
▁exported 1
▁rela 1
▁whack 1
▁800,000 1
▁garr 1
▁arthritis 1
▁fashioned 1
▁pimp 1
▁consultations 1
▁assurances 1
▁blended 1
▁becker 1
anni 1
▁interfering 1
▁rashid 1
hhh 1
▁collaborating 1
▁nuance 1
▁heartbreak 1
▁typo 1
▁avon 1
▁tentative 1
▁intimidated 1
▁unesco 1
▁antagonist 1
▁paws 1
▁mammoth 1
channel 1
▁tangled 1
▁astronomical 1
▁nacional 1
zor 1
▁traverse 1
▁autobiography 1
▁restrained 1
▁bending 1
▁barrow 1
grass 1
▁wto 1
▁mule 1
ously 1
▁diva 1
loaded 1
▁infiltrate 1
▁pellet 1
▁tsx 1
▁despise 1
pipe 1
▁defamation 1
zio 1
educated 1
▁benches 1
▁prominently 1
▁tilted 1
▁lep 1
▁pulp 1
cool 1
▁impressions 1
▁tuning 1
▁sculpt 1
hane 1
▁frazier 1
.41 1
▁nordic 1
▁hamm 1
▁paddy 1
▁pk 1
span 1
▁blasio 1
▁poisoned 1
rata 1
▁snowy 1
▁wk 1
▁kis 1
▁tibetan 1
▁javier 1
▁farmland 1
▁rejects 1
▁crocodile 1
▁canterbury 1
▁suppressed 1
▁slider 1
▁dismay 1
▁humility 1
▁bing 1
▁wiggle 1
▁mould 1
▁campground 1
finance 1
▁bonne 1
cbc 1
▁indicative 1
▁cosmetics 1
▁empirical 1
▁outlines 1
▁transcripts 1
shock 1
▁caramel 1
▁constructing 1
emo 1
▁buckets 1
▁chung 1
▁vigorously 1
▁shepard 1
▁frenchman 1
▁laurent 1
▁announcer 1
▁vow 1
▁accessory 1
thank 1
/4 1
▁substantive 1
▁researched 1
▁proportions 1
▁newfoundland 1
▁confiscated 1
▁arises 1
▁frogs 1
▁tusk 1
ographic 1
fill 1
▁lithuania 1
▁agile 1
▁rna 1
majority 1
▁deserving 1
▁coloring 1
▁reverend 1
▁zy 1
▁moderator 1
▁vettel 1
mode 1
▁zionist 1
▁kobe 1
▁dong 1
izz 1
▁intruder 1
▁carmel 1
▁clive 1
▁franz 1
▁acids 1
▁jeremiah 1
▁bigotry 1
hp 1
▁narratives 1
▁provoke 1
-80 1
▁poetic 1
▁grape 1
▁harvesting 1
▁migraine 1
▁consoles 1
▁spears 1
▁exec 1
▁obsolete 1
vier 1
▁engel 1
▁specimens 1
▁zion 1
chal 1
▁gardener 1
▁yankee 1
▁edison 1
▁huckabee 1
▁theorist 1
ý 1
▁torrent 1
▁interruption 1
▁pia 1
▁decorative 1
▁tpp 1
▁chilean 1
▁possesses 1
mission 1
▁xiao 1
▁gord 1
▁cora 1
guin 1
▁adaptive 1
▁oasis 1
▁1850 1
▁pioneers 1
▁seismic 1
▁neville 1
▁villains 1
rida 1
ambi 1
▁towering 1
▁gustav 1
▁coun 1
▁surging 1
▁benign 1
▁impacting 1
▁vile 1
▁:-) 1
▁dag 1
▁mitigation 1
▁forcibly 1
produced 1
▁patti 1
▁tyres 1
▁exporting 1
▁donuts 1
▁shia 1
▁jonah 1
▁corridors 1
credit 1
▁diff 1
▁distortion 1
▁guerrilla 1
▁tantrum 1
▁collapsing 1
▁posit 1
▁chime 1
▁stainless 1
▁willingly 1
▁ellison 1
abil 1
▁gaz 1
▁dispatcher 1
▁gerry 1
▁tidal 1
▁furnace 1
▁desp 1
▁kart 1
▁slaying 1
legged 1
▁mischief 1
▁amc 1
▁dir 1
▁walters 1
▁blackout 1
▁suzanne 1
!!! 1
▁buccaneers 1
▁costco 1
▁scot 1
▁detrimental 1
▁pathogen 1
▁737 1
▁geoffrey 1
▁creeping 1
▁pledges 1
pg 1
▁overcoming 1
▁hoodie 1
nominated 1
▁ariz 1
▁calmed 1
▁prudent 1
▁jak 1
▁gibbs 1
▁yemeni 1
▁roaming 1
▁curly 1
▁lockheed 1
ação 1
▁hari 1
▁addictive 1
▁slum 1
▁mayoral 1
▁longevity 1
▁playboy 1
▁unnoticed 1
help 1
▁naka 1
▁4-6 1
▁penguin 1
30,000 1
▁sylvia 1
▁styling 1
▁angelo 1
▁kathryn 1
▁visitation 1
vul 1
vant 1
▁devised 1
:11 1
▁saxon 1
▁stifle 1
dder 1
▁punitive 1
▁slit 1
tweet 1
▁acclaim 1
▁unreal 1
▁sera 1
▁wynn 1
expected 1
▁medicinal 1
▁canine 1
▁intensely 1
▁quirk 1
latin 1
▁vm 1
▁appointee 1
▁precursor 1
writing 1
▁integrating 1
▁bitten 1
▁birch 1
▁sketches 1
▁reeling 1
▁pervasive 1
▁inhabited 1
▁reconnect 1
▁slater 1
▁pillows 1
▁nightly 1
▁jah 1
▁horribly 1
mien 1
.93 1
▁damien 1
bourne 1
▁garda 1
▁jeb 1
cutting 1
▁faulty 1
▁worthless 1
▁lashed 1
upon 1
▁flaming 1
▁bundled 1
▁outages 1
▁dusk 1
arra 1
▁deacon 1
▁anguish 1
▁submerged 1
▁footwear 1
▁plugged 1
▁nervously 1
▁oblivious 1
▁antarctica 1
▁treadmill 1
▁sheridan 1
effect 1
▁rhine 1
▁sko 1
opoulos 1
▁shun 1
▁cyril 1
▁exercised 1
blown 1
▁echoing 1
▁influenza 1
▁conquered 1
▁brightness 1
▁expulsion 1
/17 1
allah 1
▁och 1
▁judaism 1
▁upfront 1
▁hotspot 1
▁erupt 1
▁mongolia 1
▁revamp 1
▁disciplines 1
▁1/4 1
▁bauer 1
▁poets 1
▁monet 1
▁anglican 1
▁pilgrimage 1
▁lec 1
▁hiro 1
▁forfeit 1
▁frequencies 1
▁coop 1
▁pamela 1
▁veronica 1
awaited 1
▁astronomy 1
▁rentals 1
▁zhu 1
tico 1
▁outage 1
▁planners 1
▁regretted 1
▁stricter 1
▁culturally 1
▁chevy 1
cine 1
▁attracts 1
dur 1
▁horde 1
▁relinquish 1
▁2024 1
▁tallest 1
▁banging 1
vik 1
▁photoshop 1
connected 1
▁churn 1
▁lama 1
▁anthology 1
ondo 1
▁evelyn 1
▁sweaty 1
▁bower 1
▁declares 1
byte 1
▁intimacy 1
daughter 1
▁poking 1
▁maddie 1
▁invoke 1
▁vinegar 1
▁subcommittee 1
▁hijack 1
▁nicotine 1
▁thereof 1
▁vengeance 1
▁hir 1
▁sms 1
▁withheld 1
▁muffin 1
▁bursting 1
cliffe 1
dick 1
▁dismal 1
▁vy 1
▁bia 1
igne 1
gawa 1
[...]
